{
    "vocab_size": 2588,
    "index_to_word": {
        "0": "<S>",
        "1": "</S>",
        "2": "<PAD>",
        "3": "\n",
        "4": "!",
        "5": "\"",
        "6": "#",
        "7": "$",
        "8": "%",
        "9": "&",
        "10": "'",
        "11": "(",
        "12": ")",
        "13": "*",
        "14": "+",
        "15": ",",
        "16": "-",
        "17": ".",
        "18": "/",
        "19": "0",
        "20": "1",
        "21": "2",
        "22": "2</w>",
        "23": "3",
        "24": "4",
        "25": "5",
        "26": "6",
        "27": "7",
        "28": "8",
        "29": "9",
        "30": ":",
        "31": ";",
        "32": "</w>",
        "33": "=",
        "34": ">",
        "35": "?",
        "36": "@",
        "37": "A",
        "38": "A</w>",
        "39": "AL",
        "40": "ALL</w>",
        "41": "AN",
        "42": "AN</w>",
        "43": "AND</w>",
        "44": "AR",
        "45": "ARE</w>",
        "46": "AT",
        "47": "AT</w>",
        "48": "Adul",
        "49": "Air",
        "50": "An</w>",
        "51": "Asian</w>",
        "52": "B",
        "53": "BA",
        "54": "BE",
        "55": "BL",
        "56": "BO",
        "57": "Ba",
        "58": "Baseball</w>",
        "59": "Bi",
        "60": "Black</w>",
        "61": "Bo",
        "62": "Bro",
        "63": "C",
        "64": "CH",
        "65": "Cars</w>",
        "66": "Cat</w>",
        "67": "Ch",
        "68": "Chil",
        "69": "Christmas</w>",
        "70": "Clo",
        "71": "Co",
        "72": "D",
        "73": "D</w>",
        "74": "DING</w>",
        "75": "DO",
        "76": "Do",
        "77": "E",
        "78": "E</w>",
        "79": "ED</w>",
        "80": "EL",
        "81": "EN",
        "82": "ER",
        "83": "ER</w>",
        "84": "ES</w>",
        "85": "ET</w>",
        "86": "Ele",
        "87": "F",
        "88": "F</w>",
        "89": "Five</w>",
        "90": "Four</w>",
        "91": "Fri",
        "92": "Frisbee</w>",
        "93": "G",
        "94": "G</w>",
        "95": "Gi",
        "96": "Giraff",
        "97": "Gro",
        "98": "Group</w>",
        "99": "H",
        "100": "HO",
        "101": "Hor",
        "102": "I",
        "103": "I</w>",
        "104": "IC",
        "105": "IL",
        "106": "IN",
        "107": "IN</w>",
        "108": "ING</w>",
        "109": "IR",
        "110": "IS</w>",
        "111": "IT",
        "112": "In",
        "113": "J",
        "114": "K",
        "115": "K</w>",
        "116": "KING</w>",
        "117": "L",
        "118": "L</w>",
        "119": "LO",
        "120": "Large</w>",
        "121": "Lo",
        "122": "M",
        "123": "MAN</w>",
        "124": "Ma",
        "125": "Man</w>",
        "126": "Many</w>",
        "127": "Men</w>",
        "128": "Mo",
        "129": "Multi",
        "130": "N",
        "131": "N</w>",
        "132": "Nintendo</w>",
        "133": "O",
        "134": "OF</w>",
        "135": "OM",
        "136": "ON</w>",
        "137": "OU",
        "138": "One</w>",
        "139": "P",
        "140": "P</w>",
        "141": "PE",
        "142": "PEO",
        "143": "PEOPLE</w>",
        "144": "PL",
        "145": "PLA",
        "146": "PLE</w>",
        "147": "People</w>",
        "148": "Per",
        "149": "Person</w>",
        "150": "Q",
        "151": "R",
        "152": "RA",
        "153": "RE",
        "154": "RO",
        "155": "Red</w>",
        "156": "Ro",
        "157": "S",
        "158": "S</w>",
        "159": "SI",
        "160": "ST",
        "161": "Se",
        "162": "Several</w>",
        "163": "Sh",
        "164": "Small</w>",
        "165": "Som",
        "166": "Some</w>",
        "167": "Someone</w>",
        "168": "Stre",
        "169": "Street</w>",
        "170": "T",
        "171": "T</w>",
        "172": "TA",
        "173": "TH",
        "174": "TH</w>",
        "175": "THAT</w>",
        "176": "THE</w>",
        "177": "THER",
        "178": "THERE</w>",
        "179": "TING</w>",
        "180": "TO",
        "181": "TO</w>",
        "182": "TV</w>",
        "183": "Th",
        "184": "The</w>",
        "185": "There</w>",
        "186": "This</w>",
        "187": "Three</w>",
        "188": "To",
        "189": "Two</w>",
        "190": "U",
        "191": "UR",
        "192": "V",
        "193": "V</w>",
        "194": "Vari",
        "195": "Various</w>",
        "196": "Vi",
        "197": "View</w>",
        "198": "W",
        "199": "W</w>",
        "200": "WI",
        "201": "WITH</w>",
        "202": "WO",
        "203": "Wh",
        "204": "White</w>",
        "205": "Wi",
        "206": "Wii</w>",
        "207": "Wom",
        "208": "Woman</w>",
        "209": "X",
        "210": "Y",
        "211": "Y</w>",
        "212": "YING</w>",
        "213": "Young</w>",
        "214": "Z",
        "215": "Zeb",
        "216": "[",
        "217": "\\",
        "218": "]",
        "219": "_",
        "220": "`",
        "221": "a",
        "222": "a</w>",
        "223": "ab",
        "224": "abo",
        "225": "about</w>",
        "226": "above</w>",
        "227": "ac",
        "228": "ace</w>",
        "229": "ach</w>",
        "230": "across</w>",
        "231": "action</w>",
        "232": "ad",
        "233": "ad</w>",
        "234": "aded</w>",
        "235": "ado",
        "236": "adult</w>",
        "237": "adults</w>",
        "238": "adverti",
        "239": "af",
        "240": "after</w>",
        "241": "again",
        "242": "against</w>",
        "243": "age</w>",
        "244": "ages</w>",
        "245": "air",
        "246": "air</w>",
        "247": "airplane</w>",
        "248": "airplanes</w>",
        "249": "airport</w>",
        "250": "airs</w>",
        "251": "ak</w>",
        "252": "al",
        "253": "al</w>",
        "254": "ali",
        "255": "all</w>",
        "256": "alley</w>",
        "257": "ally</w>",
        "258": "alone</w>",
        "259": "along</w>",
        "260": "alongside</w>",
        "261": "als</w>",
        "262": "am",
        "263": "am</w>",
        "264": "amon",
        "265": "among</w>",
        "266": "an",
        "267": "an</w>",
        "268": "ance</w>",
        "269": "ances</w>",
        "270": "and",
        "271": "and</w>",
        "272": "ani",
        "273": "anim",
        "274": "animal</w>",
        "275": "animals</w>",
        "276": "aning</w>",
        "277": "another</w>",
        "278": "ans</w>",
        "279": "ant</w>",
        "280": "antique</w>",
        "281": "any</w>",
        "282": "ap",
        "283": "apartment</w>",
        "284": "app",
        "285": "appears</w>",
        "286": "apple</w>",
        "287": "apples</w>",
        "288": "appli",
        "289": "appliances</w>",
        "290": "approa",
        "291": "approaching</w>",
        "292": "ar",
        "293": "ar</w>",
        "294": "ard</w>",
        "295": "ards</w>",
        "296": "are",
        "297": "are</w>",
        "298": "area</w>",
        "299": "arge</w>",
        "300": "ari",
        "301": "aring</w>",
        "302": "ark</w>",
        "303": "arm",
        "304": "arm</w>",
        "305": "arms</w>",
        "306": "around</w>",
        "307": "arran",
        "308": "arranged</w>",
        "309": "arrow</w>",
        "310": "ars</w>",
        "311": "art</w>",
        "312": "ary</w>",
        "313": "as</w>",
        "314": "assor",
        "315": "assorted</w>",
        "316": "assortment</w>",
        "317": "at",
        "318": "at</w>",
        "319": "ate</w>",
        "320": "ated</w>",
        "321": "ater</w>",
        "322": "ath",
        "323": "ath</w>",
        "324": "ating</w>",
        "325": "ation</w>",
        "326": "atop</w>",
        "327": "ats</w>",
        "328": "atta",
        "329": "attached</w>",
        "330": "attemp",
        "331": "au",
        "332": "auti",
        "333": "autiful</w>",
        "334": "away</w>",
        "335": "b",
        "336": "b</w>",
        "337": "ba",
        "338": "baby</w>",
        "339": "back",
        "340": "back</w>",
        "341": "background</w>",
        "342": "backpack</w>",
        "343": "bacon</w>",
        "344": "bag</w>",
        "345": "bage</w>",
        "346": "bags</w>",
        "347": "baked</w>",
        "348": "bal",
        "349": "ball</w>",
        "350": "balls</w>",
        "351": "ban",
        "352": "ban</w>",
        "353": "banan",
        "354": "banana</w>",
        "355": "bananas</w>",
        "356": "bar",
        "357": "bar</w>",
        "358": "barn</w>",
        "359": "base</w>",
        "360": "baseball</w>",
        "361": "bask",
        "362": "basket</w>",
        "363": "bat",
        "364": "bat</w>",
        "365": "bath",
        "366": "bath</w>",
        "367": "bathroom</w>",
        "368": "bathtub</w>",
        "369": "batter</w>",
        "370": "bb",
        "371": "be",
        "372": "be</w>",
        "373": "beach</w>",
        "374": "beans</w>",
        "375": "bear</w>",
        "376": "bears</w>",
        "377": "beautiful</w>",
        "378": "bed",
        "379": "bed</w>",
        "380": "bedroom</w>",
        "381": "beds</w>",
        "382": "been</w>",
        "383": "beer</w>",
        "384": "before</w>",
        "385": "behind</w>",
        "386": "bei",
        "387": "beige</w>",
        "388": "being</w>",
        "389": "bel",
        "390": "below</w>",
        "391": "ben",
        "392": "bench</w>",
        "393": "benches</w>",
        "394": "bene",
        "395": "beneath</w>",
        "396": "ber",
        "397": "berries</w>",
        "398": "beside</w>",
        "399": "bet",
        "400": "between</w>",
        "401": "bever",
        "402": "bi",
        "403": "bic",
        "404": "bicyc",
        "405": "bicycle</w>",
        "406": "bicycles</w>",
        "407": "big</w>",
        "408": "bike</w>",
        "409": "bikes</w>",
        "410": "bir",
        "411": "bird</w>",
        "412": "birds</w>",
        "413": "birthday</w>",
        "414": "bit",
        "415": "bit</w>",
        "416": "bite</w>",
        "417": "bl",
        "418": "black</w>",
        "419": "blan",
        "420": "blanket</w>",
        "421": "ble</w>",
        "422": "blen",
        "423": "blender</w>",
        "424": "blic</w>",
        "425": "blo",
        "426": "blon",
        "427": "blue</w>",
        "428": "blur",
        "429": "blurry</w>",
        "430": "bo",
        "431": "boar",
        "432": "board</w>",
        "433": "boarder</w>",
        "434": "boarders</w>",
        "435": "boarding</w>",
        "436": "boards</w>",
        "437": "boat</w>",
        "438": "boats</w>",
        "439": "body</w>",
        "440": "boo",
        "441": "book",
        "442": "book</w>",
        "443": "books</w>",
        "444": "bor",
        "445": "bor</w>",
        "446": "bot",
        "447": "both</w>",
        "448": "bott",
        "449": "bottle</w>",
        "450": "bottles</w>",
        "451": "botto",
        "452": "bottom</w>",
        "453": "bow",
        "454": "bow</w>",
        "455": "bowl</w>",
        "456": "bowls</w>",
        "457": "box</w>",
        "458": "boxes</w>",
        "459": "boy</w>",
        "460": "boys</w>",
        "461": "br",
        "462": "bra",
        "463": "bran",
        "464": "branch</w>",
        "465": "branches</w>",
        "466": "bre",
        "467": "brea",
        "468": "bread</w>",
        "469": "breakfast</w>",
        "470": "bri",
        "471": "brick</w>",
        "472": "bridge</w>",
        "473": "bright</w>",
        "474": "brightly</w>",
        "475": "bro",
        "476": "broccoli</w>",
        "477": "broken</w>",
        "478": "brown</w>",
        "479": "bru",
        "480": "brush</w>",
        "481": "brushes</w>",
        "482": "brushing</w>",
        "483": "bs</w>",
        "484": "bu",
        "485": "buil",
        "486": "building</w>",
        "487": "buildings</w>",
        "488": "built</w>",
        "489": "bun",
        "490": "bun</w>",
        "491": "bunch</w>",
        "492": "bur",
        "493": "bus",
        "494": "bus</w>",
        "495": "buses</w>",
        "496": "bush</w>",
        "497": "bushes</w>",
        "498": "busine",
        "499": "business</w>",
        "500": "busy</w>",
        "501": "but",
        "502": "but</w>",
        "503": "by</w>",
        "504": "c",
        "505": "c</w>",
        "506": "ca",
        "507": "cab",
        "508": "cabin",
        "509": "cabinet</w>",
        "510": "cabinets</w>",
        "511": "cage</w>",
        "512": "cake</w>",
        "513": "cakes</w>",
        "514": "cal",
        "515": "cal</w>",
        "516": "camer",
        "517": "camera</w>",
        "518": "can",
        "519": "can</w>",
        "520": "cand",
        "521": "candle</w>",
        "522": "candles</w>",
        "523": "cap</w>",
        "524": "car",
        "525": "car</w>",
        "526": "carpet</w>",
        "527": "carri",
        "528": "carriage</w>",
        "529": "carro",
        "530": "carrot</w>",
        "531": "carrots</w>",
        "532": "carrying</w>",
        "533": "cars</w>",
        "534": "cart</w>",
        "535": "case</w>",
        "536": "cases</w>",
        "537": "cat",
        "538": "cat</w>",
        "539": "catch</w>",
        "540": "catcher</w>",
        "541": "catching</w>",
        "542": "cats</w>",
        "543": "cattle</w>",
        "544": "cau",
        "545": "cco",
        "546": "ccoli</w>",
        "547": "ce",
        "548": "ce</w>",
        "549": "ced</w>",
        "550": "ceiling</w>",
        "551": "cel",
        "552": "cell",
        "553": "cell</w>",
        "554": "cellphone</w>",
        "555": "cem",
        "556": "cement</w>",
        "557": "cen",
        "558": "center</w>",
        "559": "cer",
        "560": "cer</w>",
        "561": "ces</w>",
        "562": "ch",
        "563": "ch</w>",
        "564": "cha",
        "565": "chair</w>",
        "566": "chairs</w>",
        "567": "che",
        "568": "ched</w>",
        "569": "chee",
        "570": "cheese</w>",
        "571": "chen</w>",
        "572": "cher</w>",
        "573": "ches</w>",
        "574": "chi",
        "575": "chic",
        "576": "chicken</w>",
        "577": "chil",
        "578": "child</w>",
        "579": "children</w>",
        "580": "ching</w>",
        "581": "chips</w>",
        "582": "cho",
        "583": "chocolate</w>",
        "584": "chool</w>",
        "585": "chup</w>",
        "586": "church</w>",
        "587": "ci",
        "588": "cial</w>",
        "589": "cing</w>",
        "590": "cir",
        "591": "city</w>",
        "592": "ck",
        "593": "ck</w>",
        "594": "cked</w>",
        "595": "cker</w>",
        "596": "cket</w>",
        "597": "ckets</w>",
        "598": "cking</w>",
        "599": "cks</w>",
        "600": "cky</w>",
        "601": "cl",
        "602": "cla",
        "603": "cle",
        "604": "cle</w>",
        "605": "clean</w>",
        "606": "clear</w>",
        "607": "cli",
        "608": "clo",
        "609": "clock</w>",
        "610": "clocks</w>",
        "611": "close</w>",
        "612": "closed</w>",
        "613": "closeup</w>",
        "614": "cloth",
        "615": "cloth</w>",
        "616": "clothes</w>",
        "617": "clothing</w>",
        "618": "clou",
        "619": "clouds</w>",
        "620": "cloudy</w>",
        "621": "clu",
        "622": "clut",
        "623": "cluttered</w>",
        "624": "co",
        "625": "coat</w>",
        "626": "coffee</w>",
        "627": "col",
        "628": "colate</w>",
        "629": "colle",
        "630": "colo",
        "631": "color",
        "632": "color</w>",
        "633": "colored</w>",
        "634": "colorful</w>",
        "635": "colors</w>",
        "636": "com",
        "637": "comfor",
        "638": "coming</w>",
        "639": "commercial</w>",
        "640": "commuter</w>",
        "641": "comp",
        "642": "compe",
        "643": "compu",
        "644": "computer</w>",
        "645": "computers</w>",
        "646": "con",
        "647": "con</w>",
        "648": "concrete</w>",
        "649": "construction</w>",
        "650": "contain",
        "651": "container</w>",
        "652": "containers</w>",
        "653": "containing</w>",
        "654": "contains</w>",
        "655": "contro",
        "656": "control</w>",
        "657": "controll",
        "658": "controller</w>",
        "659": "controllers</w>",
        "660": "coo",
        "661": "cooked</w>",
        "662": "cooki",
        "663": "cooking</w>",
        "664": "cor",
        "665": "cora",
        "666": "corner</w>",
        "667": "costum",
        "668": "costume</w>",
        "669": "cou",
        "670": "couch</w>",
        "671": "couches</w>",
        "672": "coun",
        "673": "counter</w>",
        "674": "country</w>",
        "675": "couple</w>",
        "676": "cour",
        "677": "course</w>",
        "678": "court</w>",
        "679": "cover",
        "680": "cover</w>",
        "681": "covered</w>",
        "682": "cow</w>",
        "683": "cows</w>",
        "684": "cra",
        "685": "craft</w>",
        "686": "cre",
        "687": "crea",
        "688": "cream</w>",
        "689": "crete</w>",
        "690": "cro",
        "691": "cross",
        "692": "cross</w>",
        "693": "crossing</w>",
        "694": "crow",
        "695": "crowd</w>",
        "696": "crowded</w>",
        "697": "cru",
        "698": "ct</w>",
        "699": "cted</w>",
        "700": "cti",
        "701": "cting</w>",
        "702": "ction</w>",
        "703": "ctions</w>",
        "704": "ctive</w>",
        "705": "ctor</w>",
        "706": "cts</w>",
        "707": "cu",
        "708": "cup",
        "709": "cup</w>",
        "710": "cups</w>",
        "711": "cur",
        "712": "curb</w>",
        "713": "curtain</w>",
        "714": "cut</w>",
        "715": "cute</w>",
        "716": "cutting</w>",
        "717": "cy</w>",
        "718": "cyc",
        "719": "cycle</w>",
        "720": "d",
        "721": "d</w>",
        "722": "da",
        "723": "dark</w>",
        "724": "day</w>",
        "725": "dd",
        "726": "dding</w>",
        "727": "ddle</w>",
        "728": "ddy</w>",
        "729": "de",
        "730": "de</w>",
        "731": "deck</w>",
        "732": "decker</w>",
        "733": "decora",
        "734": "decorated</w>",
        "735": "decorations</w>",
        "736": "decorative</w>",
        "737": "ded</w>",
        "738": "deep</w>",
        "739": "del",
        "740": "del</w>",
        "741": "den",
        "742": "den</w>",
        "743": "denti",
        "744": "dential</w>",
        "745": "der",
        "746": "der</w>",
        "747": "derly</w>",
        "748": "ders</w>",
        "749": "des",
        "750": "des</w>",
        "751": "desert</w>",
        "752": "desk",
        "753": "desk</w>",
        "754": "desktop</w>",
        "755": "dess",
        "756": "dessert</w>",
        "757": "dev",
        "758": "device</w>",
        "759": "dge</w>",
        "760": "di",
        "761": "dic",
        "762": "dies</w>",
        "763": "different</w>",
        "764": "din",
        "765": "ding</w>",
        "766": "dings</w>",
        "767": "dining</w>",
        "768": "dinner</w>",
        "769": "dire",
        "770": "directions</w>",
        "771": "dirt</w>",
        "772": "dirty</w>",
        "773": "dis",
        "774": "disc",
        "775": "disc</w>",
        "776": "dish</w>",
        "777": "dishes</w>",
        "778": "display",
        "779": "display</w>",
        "780": "displayed</w>",
        "781": "displaying</w>",
        "782": "distance</w>",
        "783": "dium</w>",
        "784": "divi",
        "785": "dividu",
        "786": "do",
        "787": "do</w>",
        "788": "dock</w>",
        "789": "docked</w>",
        "790": "does</w>",
        "791": "dog</w>",
        "792": "dogs</w>",
        "793": "doing</w>",
        "794": "doll</w>",
        "795": "donut</w>",
        "796": "donuts</w>",
        "797": "door</w>",
        "798": "doors</w>",
        "799": "doorway</w>",
        "800": "dou",
        "801": "double</w>",
        "802": "dough",
        "803": "doughnut</w>",
        "804": "doughnuts</w>",
        "805": "down",
        "806": "down</w>",
        "807": "dr",
        "808": "dra",
        "809": "drawn</w>",
        "810": "dre",
        "811": "dren</w>",
        "812": "dress",
        "813": "dress</w>",
        "814": "dressed</w>",
        "815": "dresser</w>",
        "816": "dri",
        "817": "drin",
        "818": "drink</w>",
        "819": "drinking</w>",
        "820": "drinks</w>",
        "821": "drives</w>",
        "822": "driving</w>",
        "823": "dry</w>",
        "824": "ds</w>",
        "825": "du",
        "826": "dul",
        "827": "during</w>",
        "828": "dy</w>",
        "829": "e",
        "830": "e</w>",
        "831": "ea",
        "832": "each</w>",
        "833": "ean</w>",
        "834": "ear</w>",
        "835": "ears</w>",
        "836": "eat",
        "837": "eat</w>",
        "838": "eaten</w>",
        "839": "eating</w>",
        "840": "eats</w>",
        "841": "eb",
        "842": "ed</w>",
        "843": "edge</w>",
        "844": "ee",
        "845": "ee</w>",
        "846": "eel</w>",
        "847": "eep</w>",
        "848": "eg",
        "849": "egg</w>",
        "850": "eggs</w>",
        "851": "el",
        "852": "eld</w>",
        "853": "ele",
        "854": "elec",
        "855": "electri",
        "856": "electric</w>",
        "857": "electro",
        "858": "electronic</w>",
        "859": "eled</w>",
        "860": "elephant</w>",
        "861": "elephants</w>",
        "862": "elf</w>",
        "863": "eling</w>",
        "864": "ell</w>",
        "865": "ellow</w>",
        "866": "els</w>",
        "867": "ely</w>",
        "868": "em",
        "869": "emp",
        "870": "empty</w>",
        "871": "ems</w>",
        "872": "en",
        "873": "en</w>",
        "874": "ence</w>",
        "875": "enclo",
        "876": "enclosed</w>",
        "877": "enclosure</w>",
        "878": "end</w>",
        "879": "ends</w>",
        "880": "eng",
        "881": "engine</w>",
        "882": "enjo",
        "883": "enjoying</w>",
        "884": "ens</w>",
        "885": "ent",
        "886": "ent</w>",
        "887": "enter",
        "888": "ents</w>",
        "889": "eo",
        "890": "eo</w>",
        "891": "eople</w>",
        "892": "ep</w>",
        "893": "equi",
        "894": "equipment</w>",
        "895": "er",
        "896": "er</w>",
        "897": "era",
        "898": "ere</w>",
        "899": "ered</w>",
        "900": "eri",
        "901": "ering</w>",
        "902": "ers</w>",
        "903": "ert</w>",
        "904": "ery</w>",
        "905": "es</w>",
        "906": "ese</w>",
        "907": "et",
        "908": "et</w>",
        "909": "ets</w>",
        "910": "ev",
        "911": "event</w>",
        "912": "ew</w>",
        "913": "ex",
        "914": "ey",
        "915": "ey</w>",
        "916": "eyes</w>",
        "917": "f",
        "918": "f</w>",
        "919": "fa",
        "920": "face</w>",
        "921": "facing</w>",
        "922": "fal",
        "923": "famil",
        "924": "family</w>",
        "925": "fan",
        "926": "fancy</w>",
        "927": "farm</w>",
        "928": "fashi",
        "929": "fashioned</w>",
        "930": "fast</w>",
        "931": "fe",
        "932": "fe</w>",
        "933": "feat",
        "934": "features</w>",
        "935": "fee",
        "936": "feeding</w>",
        "937": "feet</w>",
        "938": "female</w>",
        "939": "fen",
        "940": "fence</w>",
        "941": "fenced</w>",
        "942": "fer",
        "943": "fessi",
        "944": "fessional</w>",
        "945": "few</w>",
        "946": "ff",
        "947": "ff</w>",
        "948": "ffed</w>",
        "949": "ffee</w>",
        "950": "ffer",
        "951": "fferent</w>",
        "952": "fi",
        "953": "field</w>",
        "954": "fig",
        "955": "figh",
        "956": "fighter</w>",
        "957": "fil",
        "958": "filled</w>",
        "959": "fin",
        "960": "fire",
        "961": "fire</w>",
        "962": "fireplace</w>",
        "963": "fish</w>",
        "964": "five</w>",
        "965": "fla",
        "966": "flag</w>",
        "967": "flags</w>",
        "968": "flat</w>",
        "969": "fle",
        "970": "fli",
        "971": "flies</w>",
        "972": "flight</w>",
        "973": "flo",
        "974": "floating</w>",
        "975": "flock</w>",
        "976": "floor</w>",
        "977": "floors</w>",
        "978": "flower</w>",
        "979": "flowers</w>",
        "980": "flu",
        "981": "fly</w>",
        "982": "flying</w>",
        "983": "fo",
        "984": "fol",
        "985": "food</w>",
        "986": "foods</w>",
        "987": "foot</w>",
        "988": "for",
        "989": "for</w>",
        "990": "fore",
        "991": "fore</w>",
        "992": "foreground</w>",
        "993": "forest</w>",
        "994": "fork</w>",
        "995": "form",
        "996": "form</w>",
        "997": "formation</w>",
        "998": "four</w>",
        "999": "fra",
        "1000": "fre",
        "1001": "free",
        "1002": "french</w>",
        "1003": "fresh</w>",
        "1004": "fri",
        "1005": "fridge</w>",
        "1006": "friends</w>",
        "1007": "fries</w>",
        "1008": "frisbee</w>",
        "1009": "fro",
        "1010": "from</w>",
        "1011": "front</w>",
        "1012": "frosting</w>",
        "1013": "fru",
        "1014": "fruit</w>",
        "1015": "fruits</w>",
        "1016": "ft</w>",
        "1017": "fu",
        "1018": "ful</w>",
        "1019": "full</w>",
        "1020": "fully</w>",
        "1021": "fur",
        "1022": "furniture</w>",
        "1023": "g",
        "1024": "g</w>",
        "1025": "ga",
        "1026": "gain",
        "1027": "game</w>",
        "1028": "games</w>",
        "1029": "gar",
        "1030": "gar</w>",
        "1031": "garage</w>",
        "1032": "garden</w>",
        "1033": "gate</w>",
        "1034": "gath",
        "1035": "gathered</w>",
        "1036": "gaz",
        "1037": "ge",
        "1038": "ge</w>",
        "1039": "gear</w>",
        "1040": "ged</w>",
        "1041": "ger</w>",
        "1042": "gera",
        "1043": "gers</w>",
        "1044": "ges</w>",
        "1045": "get</w>",
        "1046": "gets</w>",
        "1047": "getting</w>",
        "1048": "gg",
        "1049": "gga",
        "1050": "ggage</w>",
        "1051": "gged</w>",
        "1052": "ggi",
        "1053": "gging</w>",
        "1054": "ggy</w>",
        "1055": "gh",
        "1056": "gh</w>",
        "1057": "ght</w>",
        "1058": "ghtly</w>",
        "1059": "gi",
        "1060": "giant</w>",
        "1061": "ging</w>",
        "1062": "gir",
        "1063": "giraff",
        "1064": "giraffe</w>",
        "1065": "giraffes</w>",
        "1066": "girl</w>",
        "1067": "girls</w>",
        "1068": "giving</w>",
        "1069": "gla",
        "1070": "glass</w>",
        "1071": "glasses</w>",
        "1072": "gle</w>",
        "1073": "gli",
        "1074": "glo",
        "1075": "glove</w>",
        "1076": "go",
        "1077": "go</w>",
        "1078": "goes</w>",
        "1079": "going</w>",
        "1080": "gol",
        "1081": "gold</w>",
        "1082": "gon</w>",
        "1083": "gra",
        "1084": "graff",
        "1085": "graffiti</w>",
        "1086": "grap",
        "1087": "grass</w>",
        "1088": "grassy</w>",
        "1089": "gray</w>",
        "1090": "graz",
        "1091": "graze</w>",
        "1092": "grazing</w>",
        "1093": "gre",
        "1094": "green</w>",
        "1095": "greens</w>",
        "1096": "grey</w>",
        "1097": "gri",
        "1098": "grill</w>",
        "1099": "gro",
        "1100": "ground</w>",
        "1101": "group</w>",
        "1102": "gs</w>",
        "1103": "gu",
        "1104": "gue</w>",
        "1105": "guy</w>",
        "1106": "guys</w>",
        "1107": "h",
        "1108": "ha",
        "1109": "hair</w>",
        "1110": "hal",
        "1111": "half</w>",
        "1112": "han",
        "1113": "hand",
        "1114": "hand</w>",
        "1115": "hands</w>",
        "1116": "hanging</w>",
        "1117": "happy</w>",
        "1118": "har",
        "1119": "harbor</w>",
        "1120": "hard</w>",
        "1121": "has</w>",
        "1122": "hat</w>",
        "1123": "hats</w>",
        "1124": "have</w>",
        "1125": "having</w>",
        "1126": "hay</w>",
        "1127": "he",
        "1128": "he</w>",
        "1129": "hea",
        "1130": "head",
        "1131": "head</w>",
        "1132": "heads</w>",
        "1133": "hel",
        "1134": "held</w>",
        "1135": "helmet</w>",
        "1136": "her",
        "1137": "her</w>",
        "1138": "herd</w>",
        "1139": "hi",
        "1140": "hic",
        "1141": "high",
        "1142": "high</w>",
        "1143": "highway</w>",
        "1144": "hil",
        "1145": "hill",
        "1146": "hill</w>",
        "1147": "hillside</w>",
        "1148": "him</w>",
        "1149": "himself</w>",
        "1150": "hind</w>",
        "1151": "his</w>",
        "1152": "hit",
        "1153": "hit</w>",
        "1154": "hitting</w>",
        "1155": "ho",
        "1156": "hol",
        "1157": "hold</w>",
        "1158": "holding</w>",
        "1159": "holds</w>",
        "1160": "hole</w>",
        "1161": "hom",
        "1162": "home</w>",
        "1163": "hoo",
        "1164": "hood</w>",
        "1165": "hor",
        "1166": "horse</w>",
        "1167": "horses</w>",
        "1168": "hot",
        "1169": "hot</w>",
        "1170": "hotdog</w>",
        "1171": "hotel</w>",
        "1172": "hou",
        "1173": "house</w>",
        "1174": "houses</w>",
        "1175": "hu",
        "1176": "huge</w>",
        "1177": "hun",
        "1178": "hy",
        "1179": "hyd",
        "1180": "hydran",
        "1181": "hydrant</w>",
        "1182": "i",
        "1183": "i</w>",
        "1184": "ic",
        "1185": "ic</w>",
        "1186": "ican</w>",
        "1187": "ice</w>",
        "1188": "ici",
        "1189": "icking</w>",
        "1190": "id</w>",
        "1191": "ies</w>",
        "1192": "ig",
        "1193": "igh",
        "1194": "ight</w>",
        "1195": "il",
        "1196": "il</w>",
        "1197": "ile</w>",
        "1198": "iling</w>",
        "1199": "ill</w>",
        "1200": "ily</w>",
        "1201": "ima",
        "1202": "image</w>",
        "1203": "in",
        "1204": "in</w>",
        "1205": "ina</w>",
        "1206": "inclu",
        "1207": "includes</w>",
        "1208": "including</w>",
        "1209": "ind</w>",
        "1210": "ine",
        "1211": "ine</w>",
        "1212": "ines</w>",
        "1213": "ing</w>",
        "1214": "ings</w>",
        "1215": "ining</w>",
        "1216": "ink</w>",
        "1217": "ins</w>",
        "1218": "inside</w>",
        "1219": "inten",
        "1220": "intendo</w>",
        "1221": "inter",
        "1222": "intersection</w>",
        "1223": "into</w>",
        "1224": "iny</w>",
        "1225": "ion</w>",
        "1226": "ions</w>",
        "1227": "ir",
        "1228": "ir</w>",
        "1229": "ire</w>",
        "1230": "ired</w>",
        "1231": "irt</w>",
        "1232": "irty</w>",
        "1233": "is</w>",
        "1234": "island</w>",
        "1235": "iss",
        "1236": "issors</w>",
        "1237": "it",
        "1238": "it</w>",
        "1239": "ital</w>",
        "1240": "itary</w>",
        "1241": "ite",
        "1242": "ite</w>",
        "1243": "items</w>",
        "1244": "iti",
        "1245": "iti</w>",
        "1246": "iting</w>",
        "1247": "its</w>",
        "1248": "itself</w>",
        "1249": "ity</w>",
        "1250": "ive</w>",
        "1251": "j",
        "1252": "ja",
        "1253": "jacket</w>",
        "1254": "je",
        "1255": "jet</w>",
        "1256": "jo",
        "1257": "ju",
        "1258": "juice</w>",
        "1259": "jum",
        "1260": "jump</w>",
        "1261": "jumping</w>",
        "1262": "jumps</w>",
        "1263": "just</w>",
        "1264": "k",
        "1265": "k</w>",
        "1266": "ke",
        "1267": "ke</w>",
        "1268": "ked</w>",
        "1269": "ken</w>",
        "1270": "ker</w>",
        "1271": "kers</w>",
        "1272": "kes</w>",
        "1273": "ket",
        "1274": "ket</w>",
        "1275": "ketchup</w>",
        "1276": "key",
        "1277": "key</w>",
        "1278": "keyboard</w>",
        "1279": "kfast</w>",
        "1280": "ki",
        "1281": "kicking</w>",
        "1282": "kid</w>",
        "1283": "kids</w>",
        "1284": "kin",
        "1285": "kin</w>",
        "1286": "kind</w>",
        "1287": "kinds</w>",
        "1288": "king</w>",
        "1289": "kit",
        "1290": "kitchen</w>",
        "1291": "kite</w>",
        "1292": "kites</w>",
        "1293": "kitten</w>",
        "1294": "kne",
        "1295": "kneeling</w>",
        "1296": "kni",
        "1297": "knife</w>",
        "1298": "ks</w>",
        "1299": "l",
        "1300": "l</w>",
        "1301": "la",
        "1302": "lack</w>",
        "1303": "lady</w>",
        "1304": "laid</w>",
        "1305": "lake</w>",
        "1306": "lam",
        "1307": "lamp</w>",
        "1308": "lan",
        "1309": "land",
        "1310": "land</w>",
        "1311": "landing</w>",
        "1312": "lap",
        "1313": "lap</w>",
        "1314": "laptop</w>",
        "1315": "laptops</w>",
        "1316": "lar</w>",
        "1317": "large</w>",
        "1318": "late</w>",
        "1319": "lawn</w>",
        "1320": "laying</w>",
        "1321": "lays</w>",
        "1322": "ld</w>",
        "1323": "le",
        "1324": "le</w>",
        "1325": "lea",
        "1326": "leading</w>",
        "1327": "leaning</w>",
        "1328": "leans</w>",
        "1329": "leash</w>",
        "1330": "leather</w>",
        "1331": "leaves</w>",
        "1332": "led</w>",
        "1333": "ledge</w>",
        "1334": "left</w>",
        "1335": "legs</w>",
        "1336": "ler</w>",
        "1337": "les</w>",
        "1338": "less</w>",
        "1339": "let",
        "1340": "let</w>",
        "1341": "lettuce</w>",
        "1342": "ley</w>",
        "1343": "li",
        "1344": "li</w>",
        "1345": "lid</w>",
        "1346": "lies</w>",
        "1347": "life</w>",
        "1348": "lift</w>",
        "1349": "ligh",
        "1350": "light</w>",
        "1351": "lights</w>",
        "1352": "like</w>",
        "1353": "lin",
        "1354": "line</w>",
        "1355": "lined</w>",
        "1356": "liner</w>",
        "1357": "lines</w>",
        "1358": "ling</w>",
        "1359": "list</w>",
        "1360": "lit",
        "1361": "lit</w>",
        "1362": "little</w>",
        "1363": "living</w>",
        "1364": "ll",
        "1365": "ll</w>",
        "1366": "lla",
        "1367": "lla</w>",
        "1368": "llas</w>",
        "1369": "lls</w>",
        "1370": "lly</w>",
        "1371": "lo",
        "1372": "loa",
        "1373": "loaded</w>",
        "1374": "loading</w>",
        "1375": "locat",
        "1376": "log</w>",
        "1377": "lon",
        "1378": "lone</w>",
        "1379": "long</w>",
        "1380": "loo",
        "1381": "look</w>",
        "1382": "looking</w>",
        "1383": "looks</w>",
        "1384": "lot</w>",
        "1385": "lots</w>",
        "1386": "loun",
        "1387": "low</w>",
        "1388": "lows</w>",
        "1389": "lp",
        "1390": "ls</w>",
        "1391": "lu",
        "1392": "lue</w>",
        "1393": "luggage</w>",
        "1394": "lun",
        "1395": "lunch</w>",
        "1396": "lush</w>",
        "1397": "ly</w>",
        "1398": "lying</w>",
        "1399": "m",
        "1400": "m</w>",
        "1401": "ma",
        "1402": "mac</w>",
        "1403": "mach",
        "1404": "machine</w>",
        "1405": "made</w>",
        "1406": "make</w>",
        "1407": "makes</w>",
        "1408": "making</w>",
        "1409": "male</w>",
        "1410": "mall</w>",
        "1411": "man",
        "1412": "man</w>",
        "1413": "many</w>",
        "1414": "mar",
        "1415": "market</w>",
        "1416": "mas</w>",
        "1417": "mat",
        "1418": "match</w>",
        "1419": "mb",
        "1420": "me",
        "1421": "me</w>",
        "1422": "meal</w>",
        "1423": "meat</w>",
        "1424": "med</w>",
        "1425": "men</w>",
        "1426": "ment</w>",
        "1427": "ments</w>",
        "1428": "mer",
        "1429": "mercial</w>",
        "1430": "merican</w>",
        "1431": "mes</w>",
        "1432": "messy</w>",
        "1433": "met",
        "1434": "met</w>",
        "1435": "metal</w>",
        "1436": "meter</w>",
        "1437": "meters</w>",
        "1438": "mi",
        "1439": "mi</w>",
        "1440": "mic",
        "1441": "micro",
        "1442": "microwave</w>",
        "1443": "mid</w>",
        "1444": "middle</w>",
        "1445": "mil",
        "1446": "military</w>",
        "1447": "milk</w>",
        "1448": "min",
        "1449": "mir",
        "1450": "mirro",
        "1451": "mirror</w>",
        "1452": "mit",
        "1453": "mix",
        "1454": "mm",
        "1455": "mo",
        "1456": "model</w>",
        "1457": "moder",
        "1458": "modern</w>",
        "1459": "mon",
        "1460": "moni",
        "1461": "monitor</w>",
        "1462": "monitors</w>",
        "1463": "mother</w>",
        "1464": "motor",
        "1465": "motor</w>",
        "1466": "motorcyc",
        "1467": "motorcycle</w>",
        "1468": "motorcycles</w>",
        "1469": "mou",
        "1470": "moun",
        "1471": "mound</w>",
        "1472": "mountain</w>",
        "1473": "mountains</w>",
        "1474": "mounted</w>",
        "1475": "mouse</w>",
        "1476": "mouth</w>",
        "1477": "moving</w>",
        "1478": "mp",
        "1479": "mp</w>",
        "1480": "mself</w>",
        "1481": "mu",
        "1482": "mug</w>",
        "1483": "mul",
        "1484": "multi",
        "1485": "multi</w>",
        "1486": "multiple</w>",
        "1487": "mush",
        "1488": "mushrooms</w>",
        "1489": "mustard</w>",
        "1490": "muter</w>",
        "1491": "n",
        "1492": "n</w>",
        "1493": "na",
        "1494": "nap",
        "1495": "narrow</w>",
        "1496": "nat",
        "1497": "nch</w>",
        "1498": "ne",
        "1499": "ne</w>",
        "1500": "near",
        "1501": "near</w>",
        "1502": "nearby</w>",
        "1503": "neat",
        "1504": "neath</w>",
        "1505": "neck</w>",
        "1506": "ned</w>",
        "1507": "ner</w>",
        "1508": "nes</w>",
        "1509": "net</w>",
        "1510": "new",
        "1511": "new</w>",
        "1512": "next</w>",
        "1513": "ni",
        "1514": "nic",
        "1515": "nic</w>",
        "1516": "nice</w>",
        "1517": "night</w>",
        "1518": "ning</w>",
        "1519": "nis</w>",
        "1520": "nit",
        "1521": "niture</w>",
        "1522": "no",
        "1523": "no</w>",
        "1524": "nood",
        "1525": "noodles</w>",
        "1526": "nose</w>",
        "1527": "not</w>",
        "1528": "ns</w>",
        "1529": "nt</w>",
        "1530": "nu",
        "1531": "numb",
        "1532": "number</w>",
        "1533": "nut</w>",
        "1534": "nuts</w>",
        "1535": "ny</w>",
        "1536": "o",
        "1537": "o</w>",
        "1538": "ob",
        "1539": "obje",
        "1540": "object</w>",
        "1541": "oc",
        "1542": "ocean</w>",
        "1543": "od",
        "1544": "od</w>",
        "1545": "ods</w>",
        "1546": "of",
        "1547": "of</w>",
        "1548": "off",
        "1549": "off</w>",
        "1550": "offic",
        "1551": "office</w>",
        "1552": "officer</w>",
        "1553": "ol",
        "1554": "ol</w>",
        "1555": "old</w>",
        "1556": "older</w>",
        "1557": "ols</w>",
        "1558": "om",
        "1559": "om</w>",
        "1560": "ome</w>",
        "1561": "on",
        "1562": "on</w>",
        "1563": "onal</w>",
        "1564": "one</w>",
        "1565": "oned</w>",
        "1566": "ong",
        "1567": "ong</w>",
        "1568": "oni</w>",
        "1569": "onions</w>",
        "1570": "ons</w>",
        "1571": "onto</w>",
        "1572": "oo</w>",
        "1573": "op",
        "1574": "open",
        "1575": "open</w>",
        "1576": "opened</w>",
        "1577": "or",
        "1578": "or</w>",
        "1579": "oran",
        "1580": "orange</w>",
        "1581": "oranges</w>",
        "1582": "orn",
        "1583": "ors</w>",
        "1584": "orway</w>",
        "1585": "ot",
        "1586": "ot</w>",
        "1587": "oth",
        "1588": "other</w>",
        "1589": "others</w>",
        "1590": "ou",
        "1591": "oul",
        "1592": "oun",
        "1593": "ound</w>",
        "1594": "oung</w>",
        "1595": "our</w>",
        "1596": "ous</w>",
        "1597": "ouse</w>",
        "1598": "out",
        "1599": "out</w>",
        "1600": "outdoor</w>",
        "1601": "outdoors</w>",
        "1602": "outf",
        "1603": "outfit</w>",
        "1604": "outside</w>",
        "1605": "oven</w>",
        "1606": "over",
        "1607": "over</w>",
        "1608": "overhead</w>",
        "1609": "overlooking</w>",
        "1610": "ow",
        "1611": "p",
        "1612": "p</w>",
        "1613": "pa",
        "1614": "pack</w>",
        "1615": "paddle</w>",
        "1616": "pain",
        "1617": "painted</w>",
        "1618": "painting</w>",
        "1619": "pair</w>",
        "1620": "pal",
        "1621": "palm</w>",
        "1622": "pan",
        "1623": "pan</w>",
        "1624": "pans</w>",
        "1625": "pants</w>",
        "1626": "paper</w>",
        "1627": "papers</w>",
        "1628": "par",
        "1629": "para",
        "1630": "parade</w>",
        "1631": "park</w>",
        "1632": "parked</w>",
        "1633": "parking</w>",
        "1634": "part</w>",
        "1635": "parti",
        "1636": "partially</w>",
        "1637": "partment</w>",
        "1638": "party</w>",
        "1639": "pass",
        "1640": "pass</w>",
        "1641": "passenger</w>",
        "1642": "passengers</w>",
        "1643": "passing</w>",
        "1644": "past",
        "1645": "past</w>",
        "1646": "pasta</w>",
        "1647": "pastries</w>",
        "1648": "pastry</w>",
        "1649": "pasture</w>",
        "1650": "pat",
        "1651": "path</w>",
        "1652": "pati",
        "1653": "patio</w>",
        "1654": "pavement</w>",
        "1655": "pe",
        "1656": "pe</w>",
        "1657": "ped</w>",
        "1658": "pede",
        "1659": "pedestri",
        "1660": "pedestrians</w>",
        "1661": "pel",
        "1662": "pen",
        "1663": "pen</w>",
        "1664": "people</w>",
        "1665": "pep",
        "1666": "pepper",
        "1667": "pepperoni</w>",
        "1668": "peppers</w>",
        "1669": "per",
        "1670": "per</w>",
        "1671": "perched</w>",
        "1672": "perform",
        "1673": "performing</w>",
        "1674": "pers",
        "1675": "pers</w>",
        "1676": "person</w>",
        "1677": "personal</w>",
        "1678": "persons</w>",
        "1679": "pes</w>",
        "1680": "pet</w>",
        "1681": "petting</w>",
        "1682": "phan",
        "1683": "pho",
        "1684": "phone</w>",
        "1685": "phones</w>",
        "1686": "photo",
        "1687": "photo</w>",
        "1688": "photograp",
        "1689": "photograph",
        "1690": "photograph</w>",
        "1691": "photos</w>",
        "1692": "pi",
        "1693": "pic",
        "1694": "pick",
        "1695": "pick</w>",
        "1696": "picnic</w>",
        "1697": "pict",
        "1698": "picture</w>",
        "1699": "pictures</w>",
        "1700": "pie",
        "1701": "pie</w>",
        "1702": "piece</w>",
        "1703": "pieces</w>",
        "1704": "pier</w>",
        "1705": "pil",
        "1706": "pile</w>",
        "1707": "pillow</w>",
        "1708": "pillows</w>",
        "1709": "ping</w>",
        "1710": "pink</w>",
        "1711": "pipe</w>",
        "1712": "pit",
        "1713": "pitch</w>",
        "1714": "pitcher</w>",
        "1715": "pizz",
        "1716": "pizza</w>",
        "1717": "pizzas</w>",
        "1718": "pla",
        "1719": "place</w>",
        "1720": "placed</w>",
        "1721": "plain</w>",
        "1722": "plan",
        "1723": "plane</w>",
        "1724": "planes</w>",
        "1725": "plant</w>",
        "1726": "plants</w>",
        "1727": "plastic</w>",
        "1728": "plat",
        "1729": "plate</w>",
        "1730": "plates</w>",
        "1731": "platform</w>",
        "1732": "platter</w>",
        "1733": "play",
        "1734": "play</w>",
        "1735": "player</w>",
        "1736": "players</w>",
        "1737": "playing</w>",
        "1738": "plays</w>",
        "1739": "ple</w>",
        "1740": "pment</w>",
        "1741": "po",
        "1742": "poin",
        "1743": "pointing</w>",
        "1744": "pol",
        "1745": "polar</w>",
        "1746": "pole</w>",
        "1747": "poles</w>",
        "1748": "police</w>",
        "1749": "pon",
        "1750": "pond</w>",
        "1751": "pool</w>",
        "1752": "por",
        "1753": "port</w>",
        "1754": "pose</w>",
        "1755": "posed</w>",
        "1756": "poses</w>",
        "1757": "posing</w>",
        "1758": "posit",
        "1759": "post</w>",
        "1760": "pot</w>",
        "1761": "pota",
        "1762": "potatoes</w>",
        "1763": "pots</w>",
        "1764": "pou",
        "1765": "pp",
        "1766": "pped</w>",
        "1767": "pper</w>",
        "1768": "pping</w>",
        "1769": "ppy</w>",
        "1770": "prac",
        "1771": "practic",
        "1772": "pre",
        "1773": "prepar",
        "1774": "prepared</w>",
        "1775": "prepares</w>",
        "1776": "preparing</w>",
        "1777": "pretty</w>",
        "1778": "pri",
        "1779": "prin",
        "1780": "pro",
        "1781": "produ",
        "1782": "produce</w>",
        "1783": "professional</w>",
        "1784": "propel",
        "1785": "ps</w>",
        "1786": "pu",
        "1787": "public</w>",
        "1788": "pull",
        "1789": "pulled</w>",
        "1790": "pulling</w>",
        "1791": "pur",
        "1792": "purple</w>",
        "1793": "purse</w>",
        "1794": "putting</w>",
        "1795": "q",
        "1796": "qu",
        "1797": "que</w>",
        "1798": "quet</w>",
        "1799": "qui",
        "1800": "r",
        "1801": "r</w>",
        "1802": "ra",
        "1803": "ra</w>",
        "1804": "rac",
        "1805": "race</w>",
        "1806": "racing</w>",
        "1807": "rack</w>",
        "1808": "racket</w>",
        "1809": "rackets</w>",
        "1810": "racquet</w>",
        "1811": "raff",
        "1812": "rai",
        "1813": "rail",
        "1814": "rail</w>",
        "1815": "railing</w>",
        "1816": "railroad</w>",
        "1817": "rain</w>",
        "1818": "rainy</w>",
        "1819": "ral</w>",
        "1820": "ramp</w>",
        "1821": "ran",
        "1822": "range</w>",
        "1823": "ras</w>",
        "1824": "re",
        "1825": "re</w>",
        "1826": "rea",
        "1827": "reaching</w>",
        "1828": "reading</w>",
        "1829": "reads</w>",
        "1830": "ready</w>",
        "1831": "red</w>",
        "1832": "ree</w>",
        "1833": "reen</w>",
        "1834": "refle",
        "1835": "reflection</w>",
        "1836": "refri",
        "1837": "refrigera",
        "1838": "refrigerator</w>",
        "1839": "rela",
        "1840": "remo",
        "1841": "remote</w>",
        "1842": "remotes</w>",
        "1843": "res</w>",
        "1844": "resi",
        "1845": "residential</w>",
        "1846": "rest",
        "1847": "rest</w>",
        "1848": "restaur",
        "1849": "restaurant</w>",
        "1850": "resting</w>",
        "1851": "restroom</w>",
        "1852": "rests</w>",
        "1853": "ri",
        "1854": "rice</w>",
        "1855": "ride</w>",
        "1856": "rider</w>",
        "1857": "riders</w>",
        "1858": "rides</w>",
        "1859": "riding</w>",
        "1860": "ries</w>",
        "1861": "right</w>",
        "1862": "rin",
        "1863": "ring</w>",
        "1864": "rink",
        "1865": "ripe</w>",
        "1866": "rist",
        "1867": "ristmas</w>",
        "1868": "river</w>",
        "1869": "ro",
        "1870": "roa",
        "1871": "road",
        "1872": "road</w>",
        "1873": "roadway</w>",
        "1874": "rock</w>",
        "1875": "rocks</w>",
        "1876": "rocky</w>",
        "1877": "roll",
        "1878": "roll</w>",
        "1879": "rolling</w>",
        "1880": "roof</w>",
        "1881": "room",
        "1882": "room</w>",
        "1883": "rooms</w>",
        "1884": "rope</w>",
        "1885": "roun",
        "1886": "round</w>",
        "1887": "row</w>",
        "1888": "rs</w>",
        "1889": "ru",
        "1890": "rug</w>",
        "1891": "run",
        "1892": "run</w>",
        "1893": "running</w>",
        "1894": "runway</w>",
        "1895": "rural</w>",
        "1896": "ry</w>",
        "1897": "rying</w>",
        "1898": "s",
        "1899": "s</w>",
        "1900": "sa",
        "1901": "sail",
        "1902": "sail</w>",
        "1903": "sailing</w>",
        "1904": "sal",
        "1905": "salad</w>",
        "1906": "sale</w>",
        "1907": "same</w>",
        "1908": "san",
        "1909": "sand",
        "1910": "sand</w>",
        "1911": "sandwi",
        "1912": "sandwich</w>",
        "1913": "sandwiches</w>",
        "1914": "sandy</w>",
        "1915": "sau",
        "1916": "sauce</w>",
        "1917": "sausa",
        "1918": "sausage</w>",
        "1919": "says</w>",
        "1920": "sbe",
        "1921": "sbee</w>",
        "1922": "sc",
        "1923": "sca",
        "1924": "scape</w>",
        "1925": "scen",
        "1926": "scene</w>",
        "1927": "school</w>",
        "1928": "scissors</w>",
        "1929": "scoo",
        "1930": "scooter</w>",
        "1931": "screen</w>",
        "1932": "scu",
        "1933": "sculp",
        "1934": "se",
        "1935": "se</w>",
        "1936": "sea",
        "1937": "sea</w>",
        "1938": "seagu",
        "1939": "seat</w>",
        "1940": "seated</w>",
        "1941": "seball</w>",
        "1942": "section</w>",
        "1943": "sed</w>",
        "1944": "see</w>",
        "1945": "seen</w>",
        "1946": "sel",
        "1947": "self</w>",
        "1948": "ser",
        "1949": "serve</w>",
        "1950": "served</w>",
        "1951": "serving</w>",
        "1952": "ses</w>",
        "1953": "set</w>",
        "1954": "setting</w>",
        "1955": "seup</w>",
        "1956": "several</w>",
        "1957": "sh",
        "1958": "sh</w>",
        "1959": "sha",
        "1960": "shade</w>",
        "1961": "shap",
        "1962": "shaped</w>",
        "1963": "she",
        "1964": "she</w>",
        "1965": "shed</w>",
        "1966": "shee",
        "1967": "sheep</w>",
        "1968": "sheet</w>",
        "1969": "sheets</w>",
        "1970": "shel",
        "1971": "shelf</w>",
        "1972": "shelves</w>",
        "1973": "shes</w>",
        "1974": "shi",
        "1975": "shing</w>",
        "1976": "ship</w>",
        "1977": "shir",
        "1978": "shirt</w>",
        "1979": "sho",
        "1980": "shoes</w>",
        "1981": "shop</w>",
        "1982": "shopping</w>",
        "1983": "shor",
        "1984": "shore</w>",
        "1985": "short</w>",
        "1986": "shorts</w>",
        "1987": "shot</w>",
        "1988": "shoul",
        "1989": "show</w>",
        "1990": "shower</w>",
        "1991": "showing</w>",
        "1992": "shown</w>",
        "1993": "shows</w>",
        "1994": "si",
        "1995": "sian</w>",
        "1996": "side",
        "1997": "side</w>",
        "1998": "sides</w>",
        "1999": "sidewalk</w>",
        "2000": "sig",
        "2001": "sign",
        "2002": "sign</w>",
        "2003": "signal</w>",
        "2004": "signs</w>",
        "2005": "sil",
        "2006": "sill</w>",
        "2007": "silver</w>",
        "2008": "sin",
        "2009": "sing</w>",
        "2010": "single</w>",
        "2011": "sink</w>",
        "2012": "sinks</w>",
        "2013": "sit",
        "2014": "sit</w>",
        "2015": "siting</w>",
        "2016": "sits</w>",
        "2017": "sitting</w>",
        "2018": "sized</w>",
        "2019": "sk",
        "2020": "sk</w>",
        "2021": "skat",
        "2022": "skate",
        "2023": "skate</w>",
        "2024": "skateboar",
        "2025": "skateboard</w>",
        "2026": "skateboarder</w>",
        "2027": "skateboarding</w>",
        "2028": "skateboards</w>",
        "2029": "skating</w>",
        "2030": "ski",
        "2031": "ski</w>",
        "2032": "skier</w>",
        "2033": "skiers</w>",
        "2034": "skies</w>",
        "2035": "skiing</w>",
        "2036": "skis</w>",
        "2037": "sky</w>",
        "2038": "sl",
        "2039": "sland</w>",
        "2040": "sle",
        "2041": "slee",
        "2042": "sleep</w>",
        "2043": "sleeping</w>",
        "2044": "sli",
        "2045": "slic",
        "2046": "slice</w>",
        "2047": "sliced</w>",
        "2048": "slices</w>",
        "2049": "sliding</w>",
        "2050": "slo",
        "2051": "slope</w>",
        "2052": "sm",
        "2053": "smal",
        "2054": "small</w>",
        "2055": "smaller</w>",
        "2056": "smart</w>",
        "2057": "smil",
        "2058": "smile</w>",
        "2059": "smiles</w>",
        "2060": "smiling</w>",
        "2061": "smo",
        "2062": "smoke</w>",
        "2063": "sna",
        "2064": "sno",
        "2065": "snow",
        "2066": "snow</w>",
        "2067": "snowboard</w>",
        "2068": "snowboarder</w>",
        "2069": "snowboarding</w>",
        "2070": "snowboards</w>",
        "2071": "snowy</w>",
        "2072": "so",
        "2073": "so</w>",
        "2074": "soc",
        "2075": "soccer</w>",
        "2076": "sod",
        "2077": "soda</w>",
        "2078": "sof",
        "2079": "sofa</w>",
        "2080": "som",
        "2081": "some",
        "2082": "some</w>",
        "2083": "someone</w>",
        "2084": "something</w>",
        "2085": "son</w>",
        "2086": "sor",
        "2087": "sort</w>",
        "2088": "sou",
        "2089": "soup</w>",
        "2090": "sp",
        "2091": "spa",
        "2092": "space</w>",
        "2093": "spe",
        "2094": "spea",
        "2095": "spo",
        "2096": "spoon</w>",
        "2097": "spor",
        "2098": "spra",
        "2099": "spre",
        "2100": "spread</w>",
        "2101": "sprink",
        "2102": "squ",
        "2103": "square</w>",
        "2104": "ss",
        "2105": "ss</w>",
        "2106": "sses</w>",
        "2107": "ssi",
        "2108": "ssing</w>",
        "2109": "ssor",
        "2110": "ssy</w>",
        "2111": "st",
        "2112": "st</w>",
        "2113": "sta",
        "2114": "stack</w>",
        "2115": "stacked</w>",
        "2116": "stain",
        "2117": "stainless</w>",
        "2118": "stairs</w>",
        "2119": "stall</w>",
        "2120": "stan",
        "2121": "stance</w>",
        "2122": "stand</w>",
        "2123": "standing</w>",
        "2124": "stands</w>",
        "2125": "star",
        "2126": "stard</w>",
        "2127": "staring</w>",
        "2128": "stat",
        "2129": "station</w>",
        "2130": "statue</w>",
        "2131": "staur",
        "2132": "ste",
        "2133": "steam</w>",
        "2134": "sted</w>",
        "2135": "steel</w>",
        "2136": "steps</w>",
        "2137": "ster</w>",
        "2138": "sti",
        "2139": "stic",
        "2140": "stic</w>",
        "2141": "stick</w>",
        "2142": "sticking</w>",
        "2143": "sticks</w>",
        "2144": "still</w>",
        "2145": "sting</w>",
        "2146": "sto",
        "2147": "stone</w>",
        "2148": "stop</w>",
        "2149": "stopped</w>",
        "2150": "stor",
        "2151": "store</w>",
        "2152": "stove</w>",
        "2153": "stra",
        "2154": "straw",
        "2155": "stre",
        "2156": "street</w>",
        "2157": "streets</w>",
        "2158": "stret",
        "2159": "stri",
        "2160": "stries</w>",
        "2161": "striped</w>",
        "2162": "stru",
        "2163": "struc",
        "2164": "struction</w>",
        "2165": "structure</w>",
        "2166": "sts</w>",
        "2167": "stu",
        "2168": "stuffed</w>",
        "2169": "stum",
        "2170": "stun",
        "2171": "sty",
        "2172": "sty</w>",
        "2173": "style</w>",
        "2174": "su",
        "2175": "sub",
        "2176": "subway</w>",
        "2177": "suit",
        "2178": "suit</w>",
        "2179": "suitcase</w>",
        "2180": "suitcases</w>",
        "2181": "suits</w>",
        "2182": "sun",
        "2183": "sun</w>",
        "2184": "sunglasses</w>",
        "2185": "sunny</w>",
        "2186": "sunset</w>",
        "2187": "supp",
        "2188": "sur",
        "2189": "sure</w>",
        "2190": "surf",
        "2191": "surf</w>",
        "2192": "surface</w>",
        "2193": "surfboard</w>",
        "2194": "surfboards</w>",
        "2195": "surfer</w>",
        "2196": "surfers</w>",
        "2197": "surfing</w>",
        "2198": "surroun",
        "2199": "surrounded</w>",
        "2200": "swe",
        "2201": "swi",
        "2202": "swimm",
        "2203": "swimming</w>",
        "2204": "swin",
        "2205": "swing</w>",
        "2206": "swinging</w>",
        "2207": "swings</w>",
        "2208": "sy",
        "2209": "t",
        "2210": "t</w>",
        "2211": "ta",
        "2212": "ta</w>",
        "2213": "tab",
        "2214": "table</w>",
        "2215": "tables</w>",
        "2216": "tage</w>",
        "2217": "tail</w>",
        "2218": "tain",
        "2219": "tain</w>",
        "2220": "tains</w>",
        "2221": "take</w>",
        "2222": "taken</w>",
        "2223": "takes</w>",
        "2224": "taking</w>",
        "2225": "tal",
        "2226": "talking</w>",
        "2227": "tall</w>",
        "2228": "tan",
        "2229": "tan</w>",
        "2230": "tar",
        "2231": "tarmac</w>",
        "2232": "tation</w>",
        "2233": "te",
        "2234": "te</w>",
        "2235": "tea</w>",
        "2236": "team</w>",
        "2237": "ted</w>",
        "2238": "teddy</w>",
        "2239": "tee",
        "2240": "teen",
        "2241": "teeth</w>",
        "2242": "tel</w>",
        "2243": "tele",
        "2244": "televisi",
        "2245": "television</w>",
        "2246": "temp",
        "2247": "ten",
        "2248": "ten</w>",
        "2249": "tennis</w>",
        "2250": "tensi",
        "2251": "tent</w>",
        "2252": "ter",
        "2253": "ter</w>",
        "2254": "tered</w>",
        "2255": "termin",
        "2256": "terminal</w>",
        "2257": "ters</w>",
        "2258": "tes</w>",
        "2259": "th",
        "2260": "th</w>",
        "2261": "that</w>",
        "2262": "thday</w>",
        "2263": "the",
        "2264": "the</w>",
        "2265": "their</w>",
        "2266": "them</w>",
        "2267": "ther</w>",
        "2268": "there</w>",
        "2269": "they</w>",
        "2270": "thing</w>",
        "2271": "things</w>",
        "2272": "this</w>",
        "2273": "three</w>",
        "2274": "thro",
        "2275": "through</w>",
        "2276": "throw</w>",
        "2277": "throwing</w>",
        "2278": "throws</w>",
        "2279": "ti",
        "2280": "tic",
        "2281": "tie</w>",
        "2282": "tied</w>",
        "2283": "ties</w>",
        "2284": "til",
        "2285": "tile</w>",
        "2286": "tiled</w>",
        "2287": "time</w>",
        "2288": "ting</w>",
        "2289": "tiny</w>",
        "2290": "tion</w>",
        "2291": "tions</w>",
        "2292": "tique</w>",
        "2293": "tire</w>",
        "2294": "tit",
        "2295": "tive</w>",
        "2296": "tle</w>",
        "2297": "tly</w>",
        "2298": "tment</w>",
        "2299": "to",
        "2300": "to</w>",
        "2301": "toa",
        "2302": "todd",
        "2303": "toddler</w>",
        "2304": "toes</w>",
        "2305": "toge",
        "2306": "together</w>",
        "2307": "toil",
        "2308": "toilet</w>",
        "2309": "toilets</w>",
        "2310": "toma",
        "2311": "tomato</w>",
        "2312": "tomatoes</w>",
        "2313": "ton",
        "2314": "ton</w>",
        "2315": "too",
        "2316": "tooth",
        "2317": "tooth</w>",
        "2318": "toothbrush</w>",
        "2319": "top</w>",
        "2320": "topp",
        "2321": "topped</w>",
        "2322": "toppings</w>",
        "2323": "tops</w>",
        "2324": "tor",
        "2325": "tor</w>",
        "2326": "tors</w>",
        "2327": "tou",
        "2328": "touching</w>",
        "2329": "tour</w>",
        "2330": "tow",
        "2331": "toward</w>",
        "2332": "towards</w>",
        "2333": "towel</w>",
        "2334": "towels</w>",
        "2335": "tower</w>",
        "2336": "town</w>",
        "2337": "toy</w>",
        "2338": "toys</w>",
        "2339": "tra",
        "2340": "track</w>",
        "2341": "tracks</w>",
        "2342": "traff",
        "2343": "traffic</w>",
        "2344": "trail",
        "2345": "trail</w>",
        "2346": "trailer</w>",
        "2347": "train</w>",
        "2348": "trains</w>",
        "2349": "tran",
        "2350": "transit</w>",
        "2351": "trash</w>",
        "2352": "travel",
        "2353": "traveling</w>",
        "2354": "tray</w>",
        "2355": "tre",
        "2356": "tree</w>",
        "2357": "trees</w>",
        "2358": "tri",
        "2359": "trick</w>",
        "2360": "tricks</w>",
        "2361": "tro",
        "2362": "tru",
        "2363": "truck</w>",
        "2364": "trucks</w>",
        "2365": "trun",
        "2366": "trunk</w>",
        "2367": "try</w>",
        "2368": "trying</w>",
        "2369": "ts</w>",
        "2370": "tted</w>",
        "2371": "tting</w>",
        "2372": "tty</w>",
        "2373": "tu",
        "2374": "tub</w>",
        "2375": "tuce</w>",
        "2376": "tur",
        "2377": "ture</w>",
        "2378": "tures</w>",
        "2379": "turn</w>",
        "2380": "turned</w>",
        "2381": "turning</w>",
        "2382": "tv</w>",
        "2383": "two</w>",
        "2384": "ty",
        "2385": "ty</w>",
        "2386": "type</w>",
        "2387": "types</w>",
        "2388": "u",
        "2389": "ue</w>",
        "2390": "ugh",
        "2391": "ugh</w>",
        "2392": "ul",
        "2393": "ulti",
        "2394": "um",
        "2395": "um</w>",
        "2396": "umb",
        "2397": "umbre",
        "2398": "umbrella</w>",
        "2399": "umbrellas</w>",
        "2400": "ump",
        "2401": "umpire</w>",
        "2402": "un",
        "2403": "und</w>",
        "2404": "under",
        "2405": "under</w>",
        "2406": "underneath</w>",
        "2407": "uni",
        "2408": "uniform",
        "2409": "uniform</w>",
        "2410": "uniforms</w>",
        "2411": "up",
        "2412": "up</w>",
        "2413": "upside</w>",
        "2414": "ur",
        "2415": "ur</w>",
        "2416": "ural</w>",
        "2417": "urban</w>",
        "2418": "urch</w>",
        "2419": "ure</w>",
        "2420": "ured</w>",
        "2421": "ures</w>",
        "2422": "urin",
        "2423": "urinals</w>",
        "2424": "uring</w>",
        "2425": "us</w>",
        "2426": "use</w>",
        "2427": "used</w>",
        "2428": "uses</w>",
        "2429": "using</w>",
        "2430": "ut",
        "2431": "utensi",
        "2432": "utensils</w>",
        "2433": "v",
        "2434": "v</w>",
        "2435": "va",
        "2436": "van",
        "2437": "van</w>",
        "2438": "vanity</w>",
        "2439": "vari",
        "2440": "varie",
        "2441": "variety</w>",
        "2442": "various</w>",
        "2443": "vase</w>",
        "2444": "vases</w>",
        "2445": "ve",
        "2446": "ve</w>",
        "2447": "ved</w>",
        "2448": "vege",
        "2449": "vegetable</w>",
        "2450": "vegetables</w>",
        "2451": "veggi",
        "2452": "veggies</w>",
        "2453": "vehic",
        "2454": "vehicle</w>",
        "2455": "vehicles</w>",
        "2456": "vel",
        "2457": "vel</w>",
        "2458": "vement</w>",
        "2459": "ven",
        "2460": "ven</w>",
        "2461": "ver",
        "2462": "ver</w>",
        "2463": "veral</w>",
        "2464": "verti",
        "2465": "very</w>",
        "2466": "ves</w>",
        "2467": "vest</w>",
        "2468": "vi",
        "2469": "vid",
        "2470": "video</w>",
        "2471": "view</w>",
        "2472": "vin",
        "2473": "ving</w>",
        "2474": "vintage</w>",
        "2475": "visi",
        "2476": "vy</w>",
        "2477": "w",
        "2478": "w</w>",
        "2479": "wa",
        "2480": "waiting</w>",
        "2481": "waits</w>",
        "2482": "wal",
        "2483": "walk",
        "2484": "walk</w>",
        "2485": "walking</w>",
        "2486": "walks</w>",
        "2487": "walkway</w>",
        "2488": "wall</w>",
        "2489": "walls</w>",
        "2490": "ward</w>",
        "2491": "ware</w>",
        "2492": "was</w>",
        "2493": "wash",
        "2494": "wat",
        "2495": "watch</w>",
        "2496": "watches</w>",
        "2497": "watching</w>",
        "2498": "water",
        "2499": "water</w>",
        "2500": "wave</w>",
        "2501": "waves</w>",
        "2502": "way</w>",
        "2503": "ways</w>",
        "2504": "we",
        "2505": "wearing</w>",
        "2506": "wed</w>",
        "2507": "wedding</w>",
        "2508": "ween</w>",
        "2509": "wel</w>",
        "2510": "well</w>",
        "2511": "wer</w>",
        "2512": "wers</w>",
        "2513": "wet",
        "2514": "wet</w>",
        "2515": "wetsuit</w>",
        "2516": "wh",
        "2517": "what</w>",
        "2518": "whe",
        "2519": "wheel</w>",
        "2520": "where</w>",
        "2521": "whi",
        "2522": "which</w>",
        "2523": "while</w>",
        "2524": "white</w>",
        "2525": "who",
        "2526": "who</w>",
        "2527": "wi",
        "2528": "wide</w>",
        "2529": "wii</w>",
        "2530": "wil",
        "2531": "wild</w>",
        "2532": "win",
        "2533": "windo",
        "2534": "window</w>",
        "2535": "windows</w>",
        "2536": "wine</w>",
        "2537": "wing</w>",
        "2538": "winter</w>",
        "2539": "wire</w>",
        "2540": "with",
        "2541": "with</w>",
        "2542": "wn",
        "2543": "wn</w>",
        "2544": "wo",
        "2545": "wo</w>",
        "2546": "wom",
        "2547": "woman</w>",
        "2548": "women</w>",
        "2549": "wood",
        "2550": "wood</w>",
        "2551": "wooded</w>",
        "2552": "wooden</w>",
        "2553": "woods</w>",
        "2554": "wor",
        "2555": "work</w>",
        "2556": "working</w>",
        "2557": "wr",
        "2558": "wra",
        "2559": "wrapped</w>",
        "2560": "writ",
        "2561": "writing</w>",
        "2562": "written</w>",
        "2563": "ws</w>",
        "2564": "x",
        "2565": "x</w>",
        "2566": "xes</w>",
        "2567": "xing</w>",
        "2568": "xt</w>",
        "2569": "y",
        "2570": "y</w>",
        "2571": "yard</w>",
        "2572": "yc",
        "2573": "yellow</w>",
        "2574": "yer</w>",
        "2575": "ying</w>",
        "2576": "you",
        "2577": "young</w>",
        "2578": "ys</w>",
        "2579": "z",
        "2580": "ze</w>",
        "2581": "zeb",
        "2582": "zebra</w>",
        "2583": "zebras</w>",
        "2584": "zed</w>",
        "2585": "zer</w>",
        "2586": "zoo</w>",
        "2587": "zz"
    },
    "word_to_index": {
        "<S>": 0,
        "</S>": 1,
        "<PAD>": 2,
        "\n": 3,
        "!": 4,
        "\"": 5,
        "#": 6,
        "$": 7,
        "%": 8,
        "&": 9,
        "'": 10,
        "(": 11,
        ")": 12,
        "*": 13,
        "+": 14,
        ",": 15,
        "-": 16,
        ".": 17,
        "/": 18,
        "0": 19,
        "1": 20,
        "2": 21,
        "2</w>": 22,
        "3": 23,
        "4": 24,
        "5": 25,
        "6": 26,
        "7": 27,
        "8": 28,
        "9": 29,
        ":": 30,
        ";": 31,
        "</w>": 32,
        "=": 33,
        ">": 34,
        "?": 35,
        "@": 36,
        "A": 37,
        "A</w>": 38,
        "AL": 39,
        "ALL</w>": 40,
        "AN": 41,
        "AN</w>": 42,
        "AND</w>": 43,
        "AR": 44,
        "ARE</w>": 45,
        "AT": 46,
        "AT</w>": 47,
        "Adul": 48,
        "Air": 49,
        "An</w>": 50,
        "Asian</w>": 51,
        "B": 52,
        "BA": 53,
        "BE": 54,
        "BL": 55,
        "BO": 56,
        "Ba": 57,
        "Baseball</w>": 58,
        "Bi": 59,
        "Black</w>": 60,
        "Bo": 61,
        "Bro": 62,
        "C": 63,
        "CH": 64,
        "Cars</w>": 65,
        "Cat</w>": 66,
        "Ch": 67,
        "Chil": 68,
        "Christmas</w>": 69,
        "Clo": 70,
        "Co": 71,
        "D": 72,
        "D</w>": 73,
        "DING</w>": 74,
        "DO": 75,
        "Do": 76,
        "E": 77,
        "E</w>": 78,
        "ED</w>": 79,
        "EL": 80,
        "EN": 81,
        "ER": 82,
        "ER</w>": 83,
        "ES</w>": 84,
        "ET</w>": 85,
        "Ele": 86,
        "F": 87,
        "F</w>": 88,
        "Five</w>": 89,
        "Four</w>": 90,
        "Fri": 91,
        "Frisbee</w>": 92,
        "G": 93,
        "G</w>": 94,
        "Gi": 95,
        "Giraff": 96,
        "Gro": 97,
        "Group</w>": 98,
        "H": 99,
        "HO": 100,
        "Hor": 101,
        "I": 102,
        "I</w>": 103,
        "IC": 104,
        "IL": 105,
        "IN": 106,
        "IN</w>": 107,
        "ING</w>": 108,
        "IR": 109,
        "IS</w>": 110,
        "IT": 111,
        "In": 112,
        "J": 113,
        "K": 114,
        "K</w>": 115,
        "KING</w>": 116,
        "L": 117,
        "L</w>": 118,
        "LO": 119,
        "Large</w>": 120,
        "Lo": 121,
        "M": 122,
        "MAN</w>": 123,
        "Ma": 124,
        "Man</w>": 125,
        "Many</w>": 126,
        "Men</w>": 127,
        "Mo": 128,
        "Multi": 129,
        "N": 130,
        "N</w>": 131,
        "Nintendo</w>": 132,
        "O": 133,
        "OF</w>": 134,
        "OM": 135,
        "ON</w>": 136,
        "OU": 137,
        "One</w>": 138,
        "P": 139,
        "P</w>": 140,
        "PE": 141,
        "PEO": 142,
        "PEOPLE</w>": 143,
        "PL": 144,
        "PLA": 145,
        "PLE</w>": 146,
        "People</w>": 147,
        "Per": 148,
        "Person</w>": 149,
        "Q": 150,
        "R": 151,
        "RA": 152,
        "RE": 153,
        "RO": 154,
        "Red</w>": 155,
        "Ro": 156,
        "S": 157,
        "S</w>": 158,
        "SI": 159,
        "ST": 160,
        "Se": 161,
        "Several</w>": 162,
        "Sh": 163,
        "Small</w>": 164,
        "Som": 165,
        "Some</w>": 166,
        "Someone</w>": 167,
        "Stre": 168,
        "Street</w>": 169,
        "T": 170,
        "T</w>": 171,
        "TA": 172,
        "TH": 173,
        "TH</w>": 174,
        "THAT</w>": 175,
        "THE</w>": 176,
        "THER": 177,
        "THERE</w>": 178,
        "TING</w>": 179,
        "TO": 180,
        "TO</w>": 181,
        "TV</w>": 182,
        "Th": 183,
        "The</w>": 184,
        "There</w>": 185,
        "This</w>": 186,
        "Three</w>": 187,
        "To": 188,
        "Two</w>": 189,
        "U": 190,
        "UR": 191,
        "V": 192,
        "V</w>": 193,
        "Vari": 194,
        "Various</w>": 195,
        "Vi": 196,
        "View</w>": 197,
        "W": 198,
        "W</w>": 199,
        "WI": 200,
        "WITH</w>": 201,
        "WO": 202,
        "Wh": 203,
        "White</w>": 204,
        "Wi": 205,
        "Wii</w>": 206,
        "Wom": 207,
        "Woman</w>": 208,
        "X": 209,
        "Y": 210,
        "Y</w>": 211,
        "YING</w>": 212,
        "Young</w>": 213,
        "Z": 214,
        "Zeb": 215,
        "[": 216,
        "\\": 217,
        "]": 218,
        "_": 219,
        "`": 220,
        "a": 221,
        "a</w>": 222,
        "ab": 223,
        "abo": 224,
        "about</w>": 225,
        "above</w>": 226,
        "ac": 227,
        "ace</w>": 228,
        "ach</w>": 229,
        "across</w>": 230,
        "action</w>": 231,
        "ad": 232,
        "ad</w>": 233,
        "aded</w>": 234,
        "ado": 235,
        "adult</w>": 236,
        "adults</w>": 237,
        "adverti": 238,
        "af": 239,
        "after</w>": 240,
        "again": 241,
        "against</w>": 242,
        "age</w>": 243,
        "ages</w>": 244,
        "air": 245,
        "air</w>": 246,
        "airplane</w>": 247,
        "airplanes</w>": 248,
        "airport</w>": 249,
        "airs</w>": 250,
        "ak</w>": 251,
        "al": 252,
        "al</w>": 253,
        "ali": 254,
        "all</w>": 255,
        "alley</w>": 256,
        "ally</w>": 257,
        "alone</w>": 258,
        "along</w>": 259,
        "alongside</w>": 260,
        "als</w>": 261,
        "am": 262,
        "am</w>": 263,
        "amon": 264,
        "among</w>": 265,
        "an": 266,
        "an</w>": 267,
        "ance</w>": 268,
        "ances</w>": 269,
        "and": 270,
        "and</w>": 271,
        "ani": 272,
        "anim": 273,
        "animal</w>": 274,
        "animals</w>": 275,
        "aning</w>": 276,
        "another</w>": 277,
        "ans</w>": 278,
        "ant</w>": 279,
        "antique</w>": 280,
        "any</w>": 281,
        "ap": 282,
        "apartment</w>": 283,
        "app": 284,
        "appears</w>": 285,
        "apple</w>": 286,
        "apples</w>": 287,
        "appli": 288,
        "appliances</w>": 289,
        "approa": 290,
        "approaching</w>": 291,
        "ar": 292,
        "ar</w>": 293,
        "ard</w>": 294,
        "ards</w>": 295,
        "are": 296,
        "are</w>": 297,
        "area</w>": 298,
        "arge</w>": 299,
        "ari": 300,
        "aring</w>": 301,
        "ark</w>": 302,
        "arm": 303,
        "arm</w>": 304,
        "arms</w>": 305,
        "around</w>": 306,
        "arran": 307,
        "arranged</w>": 308,
        "arrow</w>": 309,
        "ars</w>": 310,
        "art</w>": 311,
        "ary</w>": 312,
        "as</w>": 313,
        "assor": 314,
        "assorted</w>": 315,
        "assortment</w>": 316,
        "at": 317,
        "at</w>": 318,
        "ate</w>": 319,
        "ated</w>": 320,
        "ater</w>": 321,
        "ath": 322,
        "ath</w>": 323,
        "ating</w>": 324,
        "ation</w>": 325,
        "atop</w>": 326,
        "ats</w>": 327,
        "atta": 328,
        "attached</w>": 329,
        "attemp": 330,
        "au": 331,
        "auti": 332,
        "autiful</w>": 333,
        "away</w>": 334,
        "b": 335,
        "b</w>": 336,
        "ba": 337,
        "baby</w>": 338,
        "back": 339,
        "back</w>": 340,
        "background</w>": 341,
        "backpack</w>": 342,
        "bacon</w>": 343,
        "bag</w>": 344,
        "bage</w>": 345,
        "bags</w>": 346,
        "baked</w>": 347,
        "bal": 348,
        "ball</w>": 349,
        "balls</w>": 350,
        "ban": 351,
        "ban</w>": 352,
        "banan": 353,
        "banana</w>": 354,
        "bananas</w>": 355,
        "bar": 356,
        "bar</w>": 357,
        "barn</w>": 358,
        "base</w>": 359,
        "baseball</w>": 360,
        "bask": 361,
        "basket</w>": 362,
        "bat": 363,
        "bat</w>": 364,
        "bath": 365,
        "bath</w>": 366,
        "bathroom</w>": 367,
        "bathtub</w>": 368,
        "batter</w>": 369,
        "bb": 370,
        "be": 371,
        "be</w>": 372,
        "beach</w>": 373,
        "beans</w>": 374,
        "bear</w>": 375,
        "bears</w>": 376,
        "beautiful</w>": 377,
        "bed": 378,
        "bed</w>": 379,
        "bedroom</w>": 380,
        "beds</w>": 381,
        "been</w>": 382,
        "beer</w>": 383,
        "before</w>": 384,
        "behind</w>": 385,
        "bei": 386,
        "beige</w>": 387,
        "being</w>": 388,
        "bel": 389,
        "below</w>": 390,
        "ben": 391,
        "bench</w>": 392,
        "benches</w>": 393,
        "bene": 394,
        "beneath</w>": 395,
        "ber": 396,
        "berries</w>": 397,
        "beside</w>": 398,
        "bet": 399,
        "between</w>": 400,
        "bever": 401,
        "bi": 402,
        "bic": 403,
        "bicyc": 404,
        "bicycle</w>": 405,
        "bicycles</w>": 406,
        "big</w>": 407,
        "bike</w>": 408,
        "bikes</w>": 409,
        "bir": 410,
        "bird</w>": 411,
        "birds</w>": 412,
        "birthday</w>": 413,
        "bit": 414,
        "bit</w>": 415,
        "bite</w>": 416,
        "bl": 417,
        "black</w>": 418,
        "blan": 419,
        "blanket</w>": 420,
        "ble</w>": 421,
        "blen": 422,
        "blender</w>": 423,
        "blic</w>": 424,
        "blo": 425,
        "blon": 426,
        "blue</w>": 427,
        "blur": 428,
        "blurry</w>": 429,
        "bo": 430,
        "boar": 431,
        "board</w>": 432,
        "boarder</w>": 433,
        "boarders</w>": 434,
        "boarding</w>": 435,
        "boards</w>": 436,
        "boat</w>": 437,
        "boats</w>": 438,
        "body</w>": 439,
        "boo": 440,
        "book": 441,
        "book</w>": 442,
        "books</w>": 443,
        "bor": 444,
        "bor</w>": 445,
        "bot": 446,
        "both</w>": 447,
        "bott": 448,
        "bottle</w>": 449,
        "bottles</w>": 450,
        "botto": 451,
        "bottom</w>": 452,
        "bow": 453,
        "bow</w>": 454,
        "bowl</w>": 455,
        "bowls</w>": 456,
        "box</w>": 457,
        "boxes</w>": 458,
        "boy</w>": 459,
        "boys</w>": 460,
        "br": 461,
        "bra": 462,
        "bran": 463,
        "branch</w>": 464,
        "branches</w>": 465,
        "bre": 466,
        "brea": 467,
        "bread</w>": 468,
        "breakfast</w>": 469,
        "bri": 470,
        "brick</w>": 471,
        "bridge</w>": 472,
        "bright</w>": 473,
        "brightly</w>": 474,
        "bro": 475,
        "broccoli</w>": 476,
        "broken</w>": 477,
        "brown</w>": 478,
        "bru": 479,
        "brush</w>": 480,
        "brushes</w>": 481,
        "brushing</w>": 482,
        "bs</w>": 483,
        "bu": 484,
        "buil": 485,
        "building</w>": 486,
        "buildings</w>": 487,
        "built</w>": 488,
        "bun": 489,
        "bun</w>": 490,
        "bunch</w>": 491,
        "bur": 492,
        "bus": 493,
        "bus</w>": 494,
        "buses</w>": 495,
        "bush</w>": 496,
        "bushes</w>": 497,
        "busine": 498,
        "business</w>": 499,
        "busy</w>": 500,
        "but": 501,
        "but</w>": 502,
        "by</w>": 503,
        "c": 504,
        "c</w>": 505,
        "ca": 506,
        "cab": 507,
        "cabin": 508,
        "cabinet</w>": 509,
        "cabinets</w>": 510,
        "cage</w>": 511,
        "cake</w>": 512,
        "cakes</w>": 513,
        "cal": 514,
        "cal</w>": 515,
        "camer": 516,
        "camera</w>": 517,
        "can": 518,
        "can</w>": 519,
        "cand": 520,
        "candle</w>": 521,
        "candles</w>": 522,
        "cap</w>": 523,
        "car": 524,
        "car</w>": 525,
        "carpet</w>": 526,
        "carri": 527,
        "carriage</w>": 528,
        "carro": 529,
        "carrot</w>": 530,
        "carrots</w>": 531,
        "carrying</w>": 532,
        "cars</w>": 533,
        "cart</w>": 534,
        "case</w>": 535,
        "cases</w>": 536,
        "cat": 537,
        "cat</w>": 538,
        "catch</w>": 539,
        "catcher</w>": 540,
        "catching</w>": 541,
        "cats</w>": 542,
        "cattle</w>": 543,
        "cau": 544,
        "cco": 545,
        "ccoli</w>": 546,
        "ce": 547,
        "ce</w>": 548,
        "ced</w>": 549,
        "ceiling</w>": 550,
        "cel": 551,
        "cell": 552,
        "cell</w>": 553,
        "cellphone</w>": 554,
        "cem": 555,
        "cement</w>": 556,
        "cen": 557,
        "center</w>": 558,
        "cer": 559,
        "cer</w>": 560,
        "ces</w>": 561,
        "ch": 562,
        "ch</w>": 563,
        "cha": 564,
        "chair</w>": 565,
        "chairs</w>": 566,
        "che": 567,
        "ched</w>": 568,
        "chee": 569,
        "cheese</w>": 570,
        "chen</w>": 571,
        "cher</w>": 572,
        "ches</w>": 573,
        "chi": 574,
        "chic": 575,
        "chicken</w>": 576,
        "chil": 577,
        "child</w>": 578,
        "children</w>": 579,
        "ching</w>": 580,
        "chips</w>": 581,
        "cho": 582,
        "chocolate</w>": 583,
        "chool</w>": 584,
        "chup</w>": 585,
        "church</w>": 586,
        "ci": 587,
        "cial</w>": 588,
        "cing</w>": 589,
        "cir": 590,
        "city</w>": 591,
        "ck": 592,
        "ck</w>": 593,
        "cked</w>": 594,
        "cker</w>": 595,
        "cket</w>": 596,
        "ckets</w>": 597,
        "cking</w>": 598,
        "cks</w>": 599,
        "cky</w>": 600,
        "cl": 601,
        "cla": 602,
        "cle": 603,
        "cle</w>": 604,
        "clean</w>": 605,
        "clear</w>": 606,
        "cli": 607,
        "clo": 608,
        "clock</w>": 609,
        "clocks</w>": 610,
        "close</w>": 611,
        "closed</w>": 612,
        "closeup</w>": 613,
        "cloth": 614,
        "cloth</w>": 615,
        "clothes</w>": 616,
        "clothing</w>": 617,
        "clou": 618,
        "clouds</w>": 619,
        "cloudy</w>": 620,
        "clu": 621,
        "clut": 622,
        "cluttered</w>": 623,
        "co": 624,
        "coat</w>": 625,
        "coffee</w>": 626,
        "col": 627,
        "colate</w>": 628,
        "colle": 629,
        "colo": 630,
        "color": 631,
        "color</w>": 632,
        "colored</w>": 633,
        "colorful</w>": 634,
        "colors</w>": 635,
        "com": 636,
        "comfor": 637,
        "coming</w>": 638,
        "commercial</w>": 639,
        "commuter</w>": 640,
        "comp": 641,
        "compe": 642,
        "compu": 643,
        "computer</w>": 644,
        "computers</w>": 645,
        "con": 646,
        "con</w>": 647,
        "concrete</w>": 648,
        "construction</w>": 649,
        "contain": 650,
        "container</w>": 651,
        "containers</w>": 652,
        "containing</w>": 653,
        "contains</w>": 654,
        "contro": 655,
        "control</w>": 656,
        "controll": 657,
        "controller</w>": 658,
        "controllers</w>": 659,
        "coo": 660,
        "cooked</w>": 661,
        "cooki": 662,
        "cooking</w>": 663,
        "cor": 664,
        "cora": 665,
        "corner</w>": 666,
        "costum": 667,
        "costume</w>": 668,
        "cou": 669,
        "couch</w>": 670,
        "couches</w>": 671,
        "coun": 672,
        "counter</w>": 673,
        "country</w>": 674,
        "couple</w>": 675,
        "cour": 676,
        "course</w>": 677,
        "court</w>": 678,
        "cover": 679,
        "cover</w>": 680,
        "covered</w>": 681,
        "cow</w>": 682,
        "cows</w>": 683,
        "cra": 684,
        "craft</w>": 685,
        "cre": 686,
        "crea": 687,
        "cream</w>": 688,
        "crete</w>": 689,
        "cro": 690,
        "cross": 691,
        "cross</w>": 692,
        "crossing</w>": 693,
        "crow": 694,
        "crowd</w>": 695,
        "crowded</w>": 696,
        "cru": 697,
        "ct</w>": 698,
        "cted</w>": 699,
        "cti": 700,
        "cting</w>": 701,
        "ction</w>": 702,
        "ctions</w>": 703,
        "ctive</w>": 704,
        "ctor</w>": 705,
        "cts</w>": 706,
        "cu": 707,
        "cup": 708,
        "cup</w>": 709,
        "cups</w>": 710,
        "cur": 711,
        "curb</w>": 712,
        "curtain</w>": 713,
        "cut</w>": 714,
        "cute</w>": 715,
        "cutting</w>": 716,
        "cy</w>": 717,
        "cyc": 718,
        "cycle</w>": 719,
        "d": 720,
        "d</w>": 721,
        "da": 722,
        "dark</w>": 723,
        "day</w>": 724,
        "dd": 725,
        "dding</w>": 726,
        "ddle</w>": 727,
        "ddy</w>": 728,
        "de": 729,
        "de</w>": 730,
        "deck</w>": 731,
        "decker</w>": 732,
        "decora": 733,
        "decorated</w>": 734,
        "decorations</w>": 735,
        "decorative</w>": 736,
        "ded</w>": 737,
        "deep</w>": 738,
        "del": 739,
        "del</w>": 740,
        "den": 741,
        "den</w>": 742,
        "denti": 743,
        "dential</w>": 744,
        "der": 745,
        "der</w>": 746,
        "derly</w>": 747,
        "ders</w>": 748,
        "des": 749,
        "des</w>": 750,
        "desert</w>": 751,
        "desk": 752,
        "desk</w>": 753,
        "desktop</w>": 754,
        "dess": 755,
        "dessert</w>": 756,
        "dev": 757,
        "device</w>": 758,
        "dge</w>": 759,
        "di": 760,
        "dic": 761,
        "dies</w>": 762,
        "different</w>": 763,
        "din": 764,
        "ding</w>": 765,
        "dings</w>": 766,
        "dining</w>": 767,
        "dinner</w>": 768,
        "dire": 769,
        "directions</w>": 770,
        "dirt</w>": 771,
        "dirty</w>": 772,
        "dis": 773,
        "disc": 774,
        "disc</w>": 775,
        "dish</w>": 776,
        "dishes</w>": 777,
        "display": 778,
        "display</w>": 779,
        "displayed</w>": 780,
        "displaying</w>": 781,
        "distance</w>": 782,
        "dium</w>": 783,
        "divi": 784,
        "dividu": 785,
        "do": 786,
        "do</w>": 787,
        "dock</w>": 788,
        "docked</w>": 789,
        "does</w>": 790,
        "dog</w>": 791,
        "dogs</w>": 792,
        "doing</w>": 793,
        "doll</w>": 794,
        "donut</w>": 795,
        "donuts</w>": 796,
        "door</w>": 797,
        "doors</w>": 798,
        "doorway</w>": 799,
        "dou": 800,
        "double</w>": 801,
        "dough": 802,
        "doughnut</w>": 803,
        "doughnuts</w>": 804,
        "down": 805,
        "down</w>": 806,
        "dr": 807,
        "dra": 808,
        "drawn</w>": 809,
        "dre": 810,
        "dren</w>": 811,
        "dress": 812,
        "dress</w>": 813,
        "dressed</w>": 814,
        "dresser</w>": 815,
        "dri": 816,
        "drin": 817,
        "drink</w>": 818,
        "drinking</w>": 819,
        "drinks</w>": 820,
        "drives</w>": 821,
        "driving</w>": 822,
        "dry</w>": 823,
        "ds</w>": 824,
        "du": 825,
        "dul": 826,
        "during</w>": 827,
        "dy</w>": 828,
        "e": 829,
        "e</w>": 830,
        "ea": 831,
        "each</w>": 832,
        "ean</w>": 833,
        "ear</w>": 834,
        "ears</w>": 835,
        "eat": 836,
        "eat</w>": 837,
        "eaten</w>": 838,
        "eating</w>": 839,
        "eats</w>": 840,
        "eb": 841,
        "ed</w>": 842,
        "edge</w>": 843,
        "ee": 844,
        "ee</w>": 845,
        "eel</w>": 846,
        "eep</w>": 847,
        "eg": 848,
        "egg</w>": 849,
        "eggs</w>": 850,
        "el": 851,
        "eld</w>": 852,
        "ele": 853,
        "elec": 854,
        "electri": 855,
        "electric</w>": 856,
        "electro": 857,
        "electronic</w>": 858,
        "eled</w>": 859,
        "elephant</w>": 860,
        "elephants</w>": 861,
        "elf</w>": 862,
        "eling</w>": 863,
        "ell</w>": 864,
        "ellow</w>": 865,
        "els</w>": 866,
        "ely</w>": 867,
        "em": 868,
        "emp": 869,
        "empty</w>": 870,
        "ems</w>": 871,
        "en": 872,
        "en</w>": 873,
        "ence</w>": 874,
        "enclo": 875,
        "enclosed</w>": 876,
        "enclosure</w>": 877,
        "end</w>": 878,
        "ends</w>": 879,
        "eng": 880,
        "engine</w>": 881,
        "enjo": 882,
        "enjoying</w>": 883,
        "ens</w>": 884,
        "ent": 885,
        "ent</w>": 886,
        "enter": 887,
        "ents</w>": 888,
        "eo": 889,
        "eo</w>": 890,
        "eople</w>": 891,
        "ep</w>": 892,
        "equi": 893,
        "equipment</w>": 894,
        "er": 895,
        "er</w>": 896,
        "era": 897,
        "ere</w>": 898,
        "ered</w>": 899,
        "eri": 900,
        "ering</w>": 901,
        "ers</w>": 902,
        "ert</w>": 903,
        "ery</w>": 904,
        "es</w>": 905,
        "ese</w>": 906,
        "et": 907,
        "et</w>": 908,
        "ets</w>": 909,
        "ev": 910,
        "event</w>": 911,
        "ew</w>": 912,
        "ex": 913,
        "ey": 914,
        "ey</w>": 915,
        "eyes</w>": 916,
        "f": 917,
        "f</w>": 918,
        "fa": 919,
        "face</w>": 920,
        "facing</w>": 921,
        "fal": 922,
        "famil": 923,
        "family</w>": 924,
        "fan": 925,
        "fancy</w>": 926,
        "farm</w>": 927,
        "fashi": 928,
        "fashioned</w>": 929,
        "fast</w>": 930,
        "fe": 931,
        "fe</w>": 932,
        "feat": 933,
        "features</w>": 934,
        "fee": 935,
        "feeding</w>": 936,
        "feet</w>": 937,
        "female</w>": 938,
        "fen": 939,
        "fence</w>": 940,
        "fenced</w>": 941,
        "fer": 942,
        "fessi": 943,
        "fessional</w>": 944,
        "few</w>": 945,
        "ff": 946,
        "ff</w>": 947,
        "ffed</w>": 948,
        "ffee</w>": 949,
        "ffer": 950,
        "fferent</w>": 951,
        "fi": 952,
        "field</w>": 953,
        "fig": 954,
        "figh": 955,
        "fighter</w>": 956,
        "fil": 957,
        "filled</w>": 958,
        "fin": 959,
        "fire": 960,
        "fire</w>": 961,
        "fireplace</w>": 962,
        "fish</w>": 963,
        "five</w>": 964,
        "fla": 965,
        "flag</w>": 966,
        "flags</w>": 967,
        "flat</w>": 968,
        "fle": 969,
        "fli": 970,
        "flies</w>": 971,
        "flight</w>": 972,
        "flo": 973,
        "floating</w>": 974,
        "flock</w>": 975,
        "floor</w>": 976,
        "floors</w>": 977,
        "flower</w>": 978,
        "flowers</w>": 979,
        "flu": 980,
        "fly</w>": 981,
        "flying</w>": 982,
        "fo": 983,
        "fol": 984,
        "food</w>": 985,
        "foods</w>": 986,
        "foot</w>": 987,
        "for": 988,
        "for</w>": 989,
        "fore": 990,
        "fore</w>": 991,
        "foreground</w>": 992,
        "forest</w>": 993,
        "fork</w>": 994,
        "form": 995,
        "form</w>": 996,
        "formation</w>": 997,
        "four</w>": 998,
        "fra": 999,
        "fre": 1000,
        "free": 1001,
        "french</w>": 1002,
        "fresh</w>": 1003,
        "fri": 1004,
        "fridge</w>": 1005,
        "friends</w>": 1006,
        "fries</w>": 1007,
        "frisbee</w>": 1008,
        "fro": 1009,
        "from</w>": 1010,
        "front</w>": 1011,
        "frosting</w>": 1012,
        "fru": 1013,
        "fruit</w>": 1014,
        "fruits</w>": 1015,
        "ft</w>": 1016,
        "fu": 1017,
        "ful</w>": 1018,
        "full</w>": 1019,
        "fully</w>": 1020,
        "fur": 1021,
        "furniture</w>": 1022,
        "g": 1023,
        "g</w>": 1024,
        "ga": 1025,
        "gain": 1026,
        "game</w>": 1027,
        "games</w>": 1028,
        "gar": 1029,
        "gar</w>": 1030,
        "garage</w>": 1031,
        "garden</w>": 1032,
        "gate</w>": 1033,
        "gath": 1034,
        "gathered</w>": 1035,
        "gaz": 1036,
        "ge": 1037,
        "ge</w>": 1038,
        "gear</w>": 1039,
        "ged</w>": 1040,
        "ger</w>": 1041,
        "gera": 1042,
        "gers</w>": 1043,
        "ges</w>": 1044,
        "get</w>": 1045,
        "gets</w>": 1046,
        "getting</w>": 1047,
        "gg": 1048,
        "gga": 1049,
        "ggage</w>": 1050,
        "gged</w>": 1051,
        "ggi": 1052,
        "gging</w>": 1053,
        "ggy</w>": 1054,
        "gh": 1055,
        "gh</w>": 1056,
        "ght</w>": 1057,
        "ghtly</w>": 1058,
        "gi": 1059,
        "giant</w>": 1060,
        "ging</w>": 1061,
        "gir": 1062,
        "giraff": 1063,
        "giraffe</w>": 1064,
        "giraffes</w>": 1065,
        "girl</w>": 1066,
        "girls</w>": 1067,
        "giving</w>": 1068,
        "gla": 1069,
        "glass</w>": 1070,
        "glasses</w>": 1071,
        "gle</w>": 1072,
        "gli": 1073,
        "glo": 1074,
        "glove</w>": 1075,
        "go": 1076,
        "go</w>": 1077,
        "goes</w>": 1078,
        "going</w>": 1079,
        "gol": 1080,
        "gold</w>": 1081,
        "gon</w>": 1082,
        "gra": 1083,
        "graff": 1084,
        "graffiti</w>": 1085,
        "grap": 1086,
        "grass</w>": 1087,
        "grassy</w>": 1088,
        "gray</w>": 1089,
        "graz": 1090,
        "graze</w>": 1091,
        "grazing</w>": 1092,
        "gre": 1093,
        "green</w>": 1094,
        "greens</w>": 1095,
        "grey</w>": 1096,
        "gri": 1097,
        "grill</w>": 1098,
        "gro": 1099,
        "ground</w>": 1100,
        "group</w>": 1101,
        "gs</w>": 1102,
        "gu": 1103,
        "gue</w>": 1104,
        "guy</w>": 1105,
        "guys</w>": 1106,
        "h": 1107,
        "ha": 1108,
        "hair</w>": 1109,
        "hal": 1110,
        "half</w>": 1111,
        "han": 1112,
        "hand": 1113,
        "hand</w>": 1114,
        "hands</w>": 1115,
        "hanging</w>": 1116,
        "happy</w>": 1117,
        "har": 1118,
        "harbor</w>": 1119,
        "hard</w>": 1120,
        "has</w>": 1121,
        "hat</w>": 1122,
        "hats</w>": 1123,
        "have</w>": 1124,
        "having</w>": 1125,
        "hay</w>": 1126,
        "he": 1127,
        "he</w>": 1128,
        "hea": 1129,
        "head": 1130,
        "head</w>": 1131,
        "heads</w>": 1132,
        "hel": 1133,
        "held</w>": 1134,
        "helmet</w>": 1135,
        "her": 1136,
        "her</w>": 1137,
        "herd</w>": 1138,
        "hi": 1139,
        "hic": 1140,
        "high": 1141,
        "high</w>": 1142,
        "highway</w>": 1143,
        "hil": 1144,
        "hill": 1145,
        "hill</w>": 1146,
        "hillside</w>": 1147,
        "him</w>": 1148,
        "himself</w>": 1149,
        "hind</w>": 1150,
        "his</w>": 1151,
        "hit": 1152,
        "hit</w>": 1153,
        "hitting</w>": 1154,
        "ho": 1155,
        "hol": 1156,
        "hold</w>": 1157,
        "holding</w>": 1158,
        "holds</w>": 1159,
        "hole</w>": 1160,
        "hom": 1161,
        "home</w>": 1162,
        "hoo": 1163,
        "hood</w>": 1164,
        "hor": 1165,
        "horse</w>": 1166,
        "horses</w>": 1167,
        "hot": 1168,
        "hot</w>": 1169,
        "hotdog</w>": 1170,
        "hotel</w>": 1171,
        "hou": 1172,
        "house</w>": 1173,
        "houses</w>": 1174,
        "hu": 1175,
        "huge</w>": 1176,
        "hun": 1177,
        "hy": 1178,
        "hyd": 1179,
        "hydran": 1180,
        "hydrant</w>": 1181,
        "i": 1182,
        "i</w>": 1183,
        "ic": 1184,
        "ic</w>": 1185,
        "ican</w>": 1186,
        "ice</w>": 1187,
        "ici": 1188,
        "icking</w>": 1189,
        "id</w>": 1190,
        "ies</w>": 1191,
        "ig": 1192,
        "igh": 1193,
        "ight</w>": 1194,
        "il": 1195,
        "il</w>": 1196,
        "ile</w>": 1197,
        "iling</w>": 1198,
        "ill</w>": 1199,
        "ily</w>": 1200,
        "ima": 1201,
        "image</w>": 1202,
        "in": 1203,
        "in</w>": 1204,
        "ina</w>": 1205,
        "inclu": 1206,
        "includes</w>": 1207,
        "including</w>": 1208,
        "ind</w>": 1209,
        "ine": 1210,
        "ine</w>": 1211,
        "ines</w>": 1212,
        "ing</w>": 1213,
        "ings</w>": 1214,
        "ining</w>": 1215,
        "ink</w>": 1216,
        "ins</w>": 1217,
        "inside</w>": 1218,
        "inten": 1219,
        "intendo</w>": 1220,
        "inter": 1221,
        "intersection</w>": 1222,
        "into</w>": 1223,
        "iny</w>": 1224,
        "ion</w>": 1225,
        "ions</w>": 1226,
        "ir": 1227,
        "ir</w>": 1228,
        "ire</w>": 1229,
        "ired</w>": 1230,
        "irt</w>": 1231,
        "irty</w>": 1232,
        "is</w>": 1233,
        "island</w>": 1234,
        "iss": 1235,
        "issors</w>": 1236,
        "it": 1237,
        "it</w>": 1238,
        "ital</w>": 1239,
        "itary</w>": 1240,
        "ite": 1241,
        "ite</w>": 1242,
        "items</w>": 1243,
        "iti": 1244,
        "iti</w>": 1245,
        "iting</w>": 1246,
        "its</w>": 1247,
        "itself</w>": 1248,
        "ity</w>": 1249,
        "ive</w>": 1250,
        "j": 1251,
        "ja": 1252,
        "jacket</w>": 1253,
        "je": 1254,
        "jet</w>": 1255,
        "jo": 1256,
        "ju": 1257,
        "juice</w>": 1258,
        "jum": 1259,
        "jump</w>": 1260,
        "jumping</w>": 1261,
        "jumps</w>": 1262,
        "just</w>": 1263,
        "k": 1264,
        "k</w>": 1265,
        "ke": 1266,
        "ke</w>": 1267,
        "ked</w>": 1268,
        "ken</w>": 1269,
        "ker</w>": 1270,
        "kers</w>": 1271,
        "kes</w>": 1272,
        "ket": 1273,
        "ket</w>": 1274,
        "ketchup</w>": 1275,
        "key": 1276,
        "key</w>": 1277,
        "keyboard</w>": 1278,
        "kfast</w>": 1279,
        "ki": 1280,
        "kicking</w>": 1281,
        "kid</w>": 1282,
        "kids</w>": 1283,
        "kin": 1284,
        "kin</w>": 1285,
        "kind</w>": 1286,
        "kinds</w>": 1287,
        "king</w>": 1288,
        "kit": 1289,
        "kitchen</w>": 1290,
        "kite</w>": 1291,
        "kites</w>": 1292,
        "kitten</w>": 1293,
        "kne": 1294,
        "kneeling</w>": 1295,
        "kni": 1296,
        "knife</w>": 1297,
        "ks</w>": 1298,
        "l": 1299,
        "l</w>": 1300,
        "la": 1301,
        "lack</w>": 1302,
        "lady</w>": 1303,
        "laid</w>": 1304,
        "lake</w>": 1305,
        "lam": 1306,
        "lamp</w>": 1307,
        "lan": 1308,
        "land": 1309,
        "land</w>": 1310,
        "landing</w>": 1311,
        "lap": 1312,
        "lap</w>": 1313,
        "laptop</w>": 1314,
        "laptops</w>": 1315,
        "lar</w>": 1316,
        "large</w>": 1317,
        "late</w>": 1318,
        "lawn</w>": 1319,
        "laying</w>": 1320,
        "lays</w>": 1321,
        "ld</w>": 1322,
        "le": 1323,
        "le</w>": 1324,
        "lea": 1325,
        "leading</w>": 1326,
        "leaning</w>": 1327,
        "leans</w>": 1328,
        "leash</w>": 1329,
        "leather</w>": 1330,
        "leaves</w>": 1331,
        "led</w>": 1332,
        "ledge</w>": 1333,
        "left</w>": 1334,
        "legs</w>": 1335,
        "ler</w>": 1336,
        "les</w>": 1337,
        "less</w>": 1338,
        "let": 1339,
        "let</w>": 1340,
        "lettuce</w>": 1341,
        "ley</w>": 1342,
        "li": 1343,
        "li</w>": 1344,
        "lid</w>": 1345,
        "lies</w>": 1346,
        "life</w>": 1347,
        "lift</w>": 1348,
        "ligh": 1349,
        "light</w>": 1350,
        "lights</w>": 1351,
        "like</w>": 1352,
        "lin": 1353,
        "line</w>": 1354,
        "lined</w>": 1355,
        "liner</w>": 1356,
        "lines</w>": 1357,
        "ling</w>": 1358,
        "list</w>": 1359,
        "lit": 1360,
        "lit</w>": 1361,
        "little</w>": 1362,
        "living</w>": 1363,
        "ll": 1364,
        "ll</w>": 1365,
        "lla": 1366,
        "lla</w>": 1367,
        "llas</w>": 1368,
        "lls</w>": 1369,
        "lly</w>": 1370,
        "lo": 1371,
        "loa": 1372,
        "loaded</w>": 1373,
        "loading</w>": 1374,
        "locat": 1375,
        "log</w>": 1376,
        "lon": 1377,
        "lone</w>": 1378,
        "long</w>": 1379,
        "loo": 1380,
        "look</w>": 1381,
        "looking</w>": 1382,
        "looks</w>": 1383,
        "lot</w>": 1384,
        "lots</w>": 1385,
        "loun": 1386,
        "low</w>": 1387,
        "lows</w>": 1388,
        "lp": 1389,
        "ls</w>": 1390,
        "lu": 1391,
        "lue</w>": 1392,
        "luggage</w>": 1393,
        "lun": 1394,
        "lunch</w>": 1395,
        "lush</w>": 1396,
        "ly</w>": 1397,
        "lying</w>": 1398,
        "m": 1399,
        "m</w>": 1400,
        "ma": 1401,
        "mac</w>": 1402,
        "mach": 1403,
        "machine</w>": 1404,
        "made</w>": 1405,
        "make</w>": 1406,
        "makes</w>": 1407,
        "making</w>": 1408,
        "male</w>": 1409,
        "mall</w>": 1410,
        "man": 1411,
        "man</w>": 1412,
        "many</w>": 1413,
        "mar": 1414,
        "market</w>": 1415,
        "mas</w>": 1416,
        "mat": 1417,
        "match</w>": 1418,
        "mb": 1419,
        "me": 1420,
        "me</w>": 1421,
        "meal</w>": 1422,
        "meat</w>": 1423,
        "med</w>": 1424,
        "men</w>": 1425,
        "ment</w>": 1426,
        "ments</w>": 1427,
        "mer": 1428,
        "mercial</w>": 1429,
        "merican</w>": 1430,
        "mes</w>": 1431,
        "messy</w>": 1432,
        "met": 1433,
        "met</w>": 1434,
        "metal</w>": 1435,
        "meter</w>": 1436,
        "meters</w>": 1437,
        "mi": 1438,
        "mi</w>": 1439,
        "mic": 1440,
        "micro": 1441,
        "microwave</w>": 1442,
        "mid</w>": 1443,
        "middle</w>": 1444,
        "mil": 1445,
        "military</w>": 1446,
        "milk</w>": 1447,
        "min": 1448,
        "mir": 1449,
        "mirro": 1450,
        "mirror</w>": 1451,
        "mit": 1452,
        "mix": 1453,
        "mm": 1454,
        "mo": 1455,
        "model</w>": 1456,
        "moder": 1457,
        "modern</w>": 1458,
        "mon": 1459,
        "moni": 1460,
        "monitor</w>": 1461,
        "monitors</w>": 1462,
        "mother</w>": 1463,
        "motor": 1464,
        "motor</w>": 1465,
        "motorcyc": 1466,
        "motorcycle</w>": 1467,
        "motorcycles</w>": 1468,
        "mou": 1469,
        "moun": 1470,
        "mound</w>": 1471,
        "mountain</w>": 1472,
        "mountains</w>": 1473,
        "mounted</w>": 1474,
        "mouse</w>": 1475,
        "mouth</w>": 1476,
        "moving</w>": 1477,
        "mp": 1478,
        "mp</w>": 1479,
        "mself</w>": 1480,
        "mu": 1481,
        "mug</w>": 1482,
        "mul": 1483,
        "multi": 1484,
        "multi</w>": 1485,
        "multiple</w>": 1486,
        "mush": 1487,
        "mushrooms</w>": 1488,
        "mustard</w>": 1489,
        "muter</w>": 1490,
        "n": 1491,
        "n</w>": 1492,
        "na": 1493,
        "nap": 1494,
        "narrow</w>": 1495,
        "nat": 1496,
        "nch</w>": 1497,
        "ne": 1498,
        "ne</w>": 1499,
        "near": 1500,
        "near</w>": 1501,
        "nearby</w>": 1502,
        "neat": 1503,
        "neath</w>": 1504,
        "neck</w>": 1505,
        "ned</w>": 1506,
        "ner</w>": 1507,
        "nes</w>": 1508,
        "net</w>": 1509,
        "new": 1510,
        "new</w>": 1511,
        "next</w>": 1512,
        "ni": 1513,
        "nic": 1514,
        "nic</w>": 1515,
        "nice</w>": 1516,
        "night</w>": 1517,
        "ning</w>": 1518,
        "nis</w>": 1519,
        "nit": 1520,
        "niture</w>": 1521,
        "no": 1522,
        "no</w>": 1523,
        "nood": 1524,
        "noodles</w>": 1525,
        "nose</w>": 1526,
        "not</w>": 1527,
        "ns</w>": 1528,
        "nt</w>": 1529,
        "nu": 1530,
        "numb": 1531,
        "number</w>": 1532,
        "nut</w>": 1533,
        "nuts</w>": 1534,
        "ny</w>": 1535,
        "o": 1536,
        "o</w>": 1537,
        "ob": 1538,
        "obje": 1539,
        "object</w>": 1540,
        "oc": 1541,
        "ocean</w>": 1542,
        "od": 1543,
        "od</w>": 1544,
        "ods</w>": 1545,
        "of": 1546,
        "of</w>": 1547,
        "off": 1548,
        "off</w>": 1549,
        "offic": 1550,
        "office</w>": 1551,
        "officer</w>": 1552,
        "ol": 1553,
        "ol</w>": 1554,
        "old</w>": 1555,
        "older</w>": 1556,
        "ols</w>": 1557,
        "om": 1558,
        "om</w>": 1559,
        "ome</w>": 1560,
        "on": 1561,
        "on</w>": 1562,
        "onal</w>": 1563,
        "one</w>": 1564,
        "oned</w>": 1565,
        "ong": 1566,
        "ong</w>": 1567,
        "oni</w>": 1568,
        "onions</w>": 1569,
        "ons</w>": 1570,
        "onto</w>": 1571,
        "oo</w>": 1572,
        "op": 1573,
        "open": 1574,
        "open</w>": 1575,
        "opened</w>": 1576,
        "or": 1577,
        "or</w>": 1578,
        "oran": 1579,
        "orange</w>": 1580,
        "oranges</w>": 1581,
        "orn": 1582,
        "ors</w>": 1583,
        "orway</w>": 1584,
        "ot": 1585,
        "ot</w>": 1586,
        "oth": 1587,
        "other</w>": 1588,
        "others</w>": 1589,
        "ou": 1590,
        "oul": 1591,
        "oun": 1592,
        "ound</w>": 1593,
        "oung</w>": 1594,
        "our</w>": 1595,
        "ous</w>": 1596,
        "ouse</w>": 1597,
        "out": 1598,
        "out</w>": 1599,
        "outdoor</w>": 1600,
        "outdoors</w>": 1601,
        "outf": 1602,
        "outfit</w>": 1603,
        "outside</w>": 1604,
        "oven</w>": 1605,
        "over": 1606,
        "over</w>": 1607,
        "overhead</w>": 1608,
        "overlooking</w>": 1609,
        "ow": 1610,
        "p": 1611,
        "p</w>": 1612,
        "pa": 1613,
        "pack</w>": 1614,
        "paddle</w>": 1615,
        "pain": 1616,
        "painted</w>": 1617,
        "painting</w>": 1618,
        "pair</w>": 1619,
        "pal": 1620,
        "palm</w>": 1621,
        "pan": 1622,
        "pan</w>": 1623,
        "pans</w>": 1624,
        "pants</w>": 1625,
        "paper</w>": 1626,
        "papers</w>": 1627,
        "par": 1628,
        "para": 1629,
        "parade</w>": 1630,
        "park</w>": 1631,
        "parked</w>": 1632,
        "parking</w>": 1633,
        "part</w>": 1634,
        "parti": 1635,
        "partially</w>": 1636,
        "partment</w>": 1637,
        "party</w>": 1638,
        "pass": 1639,
        "pass</w>": 1640,
        "passenger</w>": 1641,
        "passengers</w>": 1642,
        "passing</w>": 1643,
        "past": 1644,
        "past</w>": 1645,
        "pasta</w>": 1646,
        "pastries</w>": 1647,
        "pastry</w>": 1648,
        "pasture</w>": 1649,
        "pat": 1650,
        "path</w>": 1651,
        "pati": 1652,
        "patio</w>": 1653,
        "pavement</w>": 1654,
        "pe": 1655,
        "pe</w>": 1656,
        "ped</w>": 1657,
        "pede": 1658,
        "pedestri": 1659,
        "pedestrians</w>": 1660,
        "pel": 1661,
        "pen": 1662,
        "pen</w>": 1663,
        "people</w>": 1664,
        "pep": 1665,
        "pepper": 1666,
        "pepperoni</w>": 1667,
        "peppers</w>": 1668,
        "per": 1669,
        "per</w>": 1670,
        "perched</w>": 1671,
        "perform": 1672,
        "performing</w>": 1673,
        "pers": 1674,
        "pers</w>": 1675,
        "person</w>": 1676,
        "personal</w>": 1677,
        "persons</w>": 1678,
        "pes</w>": 1679,
        "pet</w>": 1680,
        "petting</w>": 1681,
        "phan": 1682,
        "pho": 1683,
        "phone</w>": 1684,
        "phones</w>": 1685,
        "photo": 1686,
        "photo</w>": 1687,
        "photograp": 1688,
        "photograph": 1689,
        "photograph</w>": 1690,
        "photos</w>": 1691,
        "pi": 1692,
        "pic": 1693,
        "pick": 1694,
        "pick</w>": 1695,
        "picnic</w>": 1696,
        "pict": 1697,
        "picture</w>": 1698,
        "pictures</w>": 1699,
        "pie": 1700,
        "pie</w>": 1701,
        "piece</w>": 1702,
        "pieces</w>": 1703,
        "pier</w>": 1704,
        "pil": 1705,
        "pile</w>": 1706,
        "pillow</w>": 1707,
        "pillows</w>": 1708,
        "ping</w>": 1709,
        "pink</w>": 1710,
        "pipe</w>": 1711,
        "pit": 1712,
        "pitch</w>": 1713,
        "pitcher</w>": 1714,
        "pizz": 1715,
        "pizza</w>": 1716,
        "pizzas</w>": 1717,
        "pla": 1718,
        "place</w>": 1719,
        "placed</w>": 1720,
        "plain</w>": 1721,
        "plan": 1722,
        "plane</w>": 1723,
        "planes</w>": 1724,
        "plant</w>": 1725,
        "plants</w>": 1726,
        "plastic</w>": 1727,
        "plat": 1728,
        "plate</w>": 1729,
        "plates</w>": 1730,
        "platform</w>": 1731,
        "platter</w>": 1732,
        "play": 1733,
        "play</w>": 1734,
        "player</w>": 1735,
        "players</w>": 1736,
        "playing</w>": 1737,
        "plays</w>": 1738,
        "ple</w>": 1739,
        "pment</w>": 1740,
        "po": 1741,
        "poin": 1742,
        "pointing</w>": 1743,
        "pol": 1744,
        "polar</w>": 1745,
        "pole</w>": 1746,
        "poles</w>": 1747,
        "police</w>": 1748,
        "pon": 1749,
        "pond</w>": 1750,
        "pool</w>": 1751,
        "por": 1752,
        "port</w>": 1753,
        "pose</w>": 1754,
        "posed</w>": 1755,
        "poses</w>": 1756,
        "posing</w>": 1757,
        "posit": 1758,
        "post</w>": 1759,
        "pot</w>": 1760,
        "pota": 1761,
        "potatoes</w>": 1762,
        "pots</w>": 1763,
        "pou": 1764,
        "pp": 1765,
        "pped</w>": 1766,
        "pper</w>": 1767,
        "pping</w>": 1768,
        "ppy</w>": 1769,
        "prac": 1770,
        "practic": 1771,
        "pre": 1772,
        "prepar": 1773,
        "prepared</w>": 1774,
        "prepares</w>": 1775,
        "preparing</w>": 1776,
        "pretty</w>": 1777,
        "pri": 1778,
        "prin": 1779,
        "pro": 1780,
        "produ": 1781,
        "produce</w>": 1782,
        "professional</w>": 1783,
        "propel": 1784,
        "ps</w>": 1785,
        "pu": 1786,
        "public</w>": 1787,
        "pull": 1788,
        "pulled</w>": 1789,
        "pulling</w>": 1790,
        "pur": 1791,
        "purple</w>": 1792,
        "purse</w>": 1793,
        "putting</w>": 1794,
        "q": 1795,
        "qu": 1796,
        "que</w>": 1797,
        "quet</w>": 1798,
        "qui": 1799,
        "r": 1800,
        "r</w>": 1801,
        "ra": 1802,
        "ra</w>": 1803,
        "rac": 1804,
        "race</w>": 1805,
        "racing</w>": 1806,
        "rack</w>": 1807,
        "racket</w>": 1808,
        "rackets</w>": 1809,
        "racquet</w>": 1810,
        "raff": 1811,
        "rai": 1812,
        "rail": 1813,
        "rail</w>": 1814,
        "railing</w>": 1815,
        "railroad</w>": 1816,
        "rain</w>": 1817,
        "rainy</w>": 1818,
        "ral</w>": 1819,
        "ramp</w>": 1820,
        "ran": 1821,
        "range</w>": 1822,
        "ras</w>": 1823,
        "re": 1824,
        "re</w>": 1825,
        "rea": 1826,
        "reaching</w>": 1827,
        "reading</w>": 1828,
        "reads</w>": 1829,
        "ready</w>": 1830,
        "red</w>": 1831,
        "ree</w>": 1832,
        "reen</w>": 1833,
        "refle": 1834,
        "reflection</w>": 1835,
        "refri": 1836,
        "refrigera": 1837,
        "refrigerator</w>": 1838,
        "rela": 1839,
        "remo": 1840,
        "remote</w>": 1841,
        "remotes</w>": 1842,
        "res</w>": 1843,
        "resi": 1844,
        "residential</w>": 1845,
        "rest": 1846,
        "rest</w>": 1847,
        "restaur": 1848,
        "restaurant</w>": 1849,
        "resting</w>": 1850,
        "restroom</w>": 1851,
        "rests</w>": 1852,
        "ri": 1853,
        "rice</w>": 1854,
        "ride</w>": 1855,
        "rider</w>": 1856,
        "riders</w>": 1857,
        "rides</w>": 1858,
        "riding</w>": 1859,
        "ries</w>": 1860,
        "right</w>": 1861,
        "rin": 1862,
        "ring</w>": 1863,
        "rink": 1864,
        "ripe</w>": 1865,
        "rist": 1866,
        "ristmas</w>": 1867,
        "river</w>": 1868,
        "ro": 1869,
        "roa": 1870,
        "road": 1871,
        "road</w>": 1872,
        "roadway</w>": 1873,
        "rock</w>": 1874,
        "rocks</w>": 1875,
        "rocky</w>": 1876,
        "roll": 1877,
        "roll</w>": 1878,
        "rolling</w>": 1879,
        "roof</w>": 1880,
        "room": 1881,
        "room</w>": 1882,
        "rooms</w>": 1883,
        "rope</w>": 1884,
        "roun": 1885,
        "round</w>": 1886,
        "row</w>": 1887,
        "rs</w>": 1888,
        "ru": 1889,
        "rug</w>": 1890,
        "run": 1891,
        "run</w>": 1892,
        "running</w>": 1893,
        "runway</w>": 1894,
        "rural</w>": 1895,
        "ry</w>": 1896,
        "rying</w>": 1897,
        "s": 1898,
        "s</w>": 1899,
        "sa": 1900,
        "sail": 1901,
        "sail</w>": 1902,
        "sailing</w>": 1903,
        "sal": 1904,
        "salad</w>": 1905,
        "sale</w>": 1906,
        "same</w>": 1907,
        "san": 1908,
        "sand": 1909,
        "sand</w>": 1910,
        "sandwi": 1911,
        "sandwich</w>": 1912,
        "sandwiches</w>": 1913,
        "sandy</w>": 1914,
        "sau": 1915,
        "sauce</w>": 1916,
        "sausa": 1917,
        "sausage</w>": 1918,
        "says</w>": 1919,
        "sbe": 1920,
        "sbee</w>": 1921,
        "sc": 1922,
        "sca": 1923,
        "scape</w>": 1924,
        "scen": 1925,
        "scene</w>": 1926,
        "school</w>": 1927,
        "scissors</w>": 1928,
        "scoo": 1929,
        "scooter</w>": 1930,
        "screen</w>": 1931,
        "scu": 1932,
        "sculp": 1933,
        "se": 1934,
        "se</w>": 1935,
        "sea": 1936,
        "sea</w>": 1937,
        "seagu": 1938,
        "seat</w>": 1939,
        "seated</w>": 1940,
        "seball</w>": 1941,
        "section</w>": 1942,
        "sed</w>": 1943,
        "see</w>": 1944,
        "seen</w>": 1945,
        "sel": 1946,
        "self</w>": 1947,
        "ser": 1948,
        "serve</w>": 1949,
        "served</w>": 1950,
        "serving</w>": 1951,
        "ses</w>": 1952,
        "set</w>": 1953,
        "setting</w>": 1954,
        "seup</w>": 1955,
        "several</w>": 1956,
        "sh": 1957,
        "sh</w>": 1958,
        "sha": 1959,
        "shade</w>": 1960,
        "shap": 1961,
        "shaped</w>": 1962,
        "she": 1963,
        "she</w>": 1964,
        "shed</w>": 1965,
        "shee": 1966,
        "sheep</w>": 1967,
        "sheet</w>": 1968,
        "sheets</w>": 1969,
        "shel": 1970,
        "shelf</w>": 1971,
        "shelves</w>": 1972,
        "shes</w>": 1973,
        "shi": 1974,
        "shing</w>": 1975,
        "ship</w>": 1976,
        "shir": 1977,
        "shirt</w>": 1978,
        "sho": 1979,
        "shoes</w>": 1980,
        "shop</w>": 1981,
        "shopping</w>": 1982,
        "shor": 1983,
        "shore</w>": 1984,
        "short</w>": 1985,
        "shorts</w>": 1986,
        "shot</w>": 1987,
        "shoul": 1988,
        "show</w>": 1989,
        "shower</w>": 1990,
        "showing</w>": 1991,
        "shown</w>": 1992,
        "shows</w>": 1993,
        "si": 1994,
        "sian</w>": 1995,
        "side": 1996,
        "side</w>": 1997,
        "sides</w>": 1998,
        "sidewalk</w>": 1999,
        "sig": 2000,
        "sign": 2001,
        "sign</w>": 2002,
        "signal</w>": 2003,
        "signs</w>": 2004,
        "sil": 2005,
        "sill</w>": 2006,
        "silver</w>": 2007,
        "sin": 2008,
        "sing</w>": 2009,
        "single</w>": 2010,
        "sink</w>": 2011,
        "sinks</w>": 2012,
        "sit": 2013,
        "sit</w>": 2014,
        "siting</w>": 2015,
        "sits</w>": 2016,
        "sitting</w>": 2017,
        "sized</w>": 2018,
        "sk": 2019,
        "sk</w>": 2020,
        "skat": 2021,
        "skate": 2022,
        "skate</w>": 2023,
        "skateboar": 2024,
        "skateboard</w>": 2025,
        "skateboarder</w>": 2026,
        "skateboarding</w>": 2027,
        "skateboards</w>": 2028,
        "skating</w>": 2029,
        "ski": 2030,
        "ski</w>": 2031,
        "skier</w>": 2032,
        "skiers</w>": 2033,
        "skies</w>": 2034,
        "skiing</w>": 2035,
        "skis</w>": 2036,
        "sky</w>": 2037,
        "sl": 2038,
        "sland</w>": 2039,
        "sle": 2040,
        "slee": 2041,
        "sleep</w>": 2042,
        "sleeping</w>": 2043,
        "sli": 2044,
        "slic": 2045,
        "slice</w>": 2046,
        "sliced</w>": 2047,
        "slices</w>": 2048,
        "sliding</w>": 2049,
        "slo": 2050,
        "slope</w>": 2051,
        "sm": 2052,
        "smal": 2053,
        "small</w>": 2054,
        "smaller</w>": 2055,
        "smart</w>": 2056,
        "smil": 2057,
        "smile</w>": 2058,
        "smiles</w>": 2059,
        "smiling</w>": 2060,
        "smo": 2061,
        "smoke</w>": 2062,
        "sna": 2063,
        "sno": 2064,
        "snow": 2065,
        "snow</w>": 2066,
        "snowboard</w>": 2067,
        "snowboarder</w>": 2068,
        "snowboarding</w>": 2069,
        "snowboards</w>": 2070,
        "snowy</w>": 2071,
        "so": 2072,
        "so</w>": 2073,
        "soc": 2074,
        "soccer</w>": 2075,
        "sod": 2076,
        "soda</w>": 2077,
        "sof": 2078,
        "sofa</w>": 2079,
        "som": 2080,
        "some": 2081,
        "some</w>": 2082,
        "someone</w>": 2083,
        "something</w>": 2084,
        "son</w>": 2085,
        "sor": 2086,
        "sort</w>": 2087,
        "sou": 2088,
        "soup</w>": 2089,
        "sp": 2090,
        "spa": 2091,
        "space</w>": 2092,
        "spe": 2093,
        "spea": 2094,
        "spo": 2095,
        "spoon</w>": 2096,
        "spor": 2097,
        "spra": 2098,
        "spre": 2099,
        "spread</w>": 2100,
        "sprink": 2101,
        "squ": 2102,
        "square</w>": 2103,
        "ss": 2104,
        "ss</w>": 2105,
        "sses</w>": 2106,
        "ssi": 2107,
        "ssing</w>": 2108,
        "ssor": 2109,
        "ssy</w>": 2110,
        "st": 2111,
        "st</w>": 2112,
        "sta": 2113,
        "stack</w>": 2114,
        "stacked</w>": 2115,
        "stain": 2116,
        "stainless</w>": 2117,
        "stairs</w>": 2118,
        "stall</w>": 2119,
        "stan": 2120,
        "stance</w>": 2121,
        "stand</w>": 2122,
        "standing</w>": 2123,
        "stands</w>": 2124,
        "star": 2125,
        "stard</w>": 2126,
        "staring</w>": 2127,
        "stat": 2128,
        "station</w>": 2129,
        "statue</w>": 2130,
        "staur": 2131,
        "ste": 2132,
        "steam</w>": 2133,
        "sted</w>": 2134,
        "steel</w>": 2135,
        "steps</w>": 2136,
        "ster</w>": 2137,
        "sti": 2138,
        "stic": 2139,
        "stic</w>": 2140,
        "stick</w>": 2141,
        "sticking</w>": 2142,
        "sticks</w>": 2143,
        "still</w>": 2144,
        "sting</w>": 2145,
        "sto": 2146,
        "stone</w>": 2147,
        "stop</w>": 2148,
        "stopped</w>": 2149,
        "stor": 2150,
        "store</w>": 2151,
        "stove</w>": 2152,
        "stra": 2153,
        "straw": 2154,
        "stre": 2155,
        "street</w>": 2156,
        "streets</w>": 2157,
        "stret": 2158,
        "stri": 2159,
        "stries</w>": 2160,
        "striped</w>": 2161,
        "stru": 2162,
        "struc": 2163,
        "struction</w>": 2164,
        "structure</w>": 2165,
        "sts</w>": 2166,
        "stu": 2167,
        "stuffed</w>": 2168,
        "stum": 2169,
        "stun": 2170,
        "sty": 2171,
        "sty</w>": 2172,
        "style</w>": 2173,
        "su": 2174,
        "sub": 2175,
        "subway</w>": 2176,
        "suit": 2177,
        "suit</w>": 2178,
        "suitcase</w>": 2179,
        "suitcases</w>": 2180,
        "suits</w>": 2181,
        "sun": 2182,
        "sun</w>": 2183,
        "sunglasses</w>": 2184,
        "sunny</w>": 2185,
        "sunset</w>": 2186,
        "supp": 2187,
        "sur": 2188,
        "sure</w>": 2189,
        "surf": 2190,
        "surf</w>": 2191,
        "surface</w>": 2192,
        "surfboard</w>": 2193,
        "surfboards</w>": 2194,
        "surfer</w>": 2195,
        "surfers</w>": 2196,
        "surfing</w>": 2197,
        "surroun": 2198,
        "surrounded</w>": 2199,
        "swe": 2200,
        "swi": 2201,
        "swimm": 2202,
        "swimming</w>": 2203,
        "swin": 2204,
        "swing</w>": 2205,
        "swinging</w>": 2206,
        "swings</w>": 2207,
        "sy": 2208,
        "t": 2209,
        "t</w>": 2210,
        "ta": 2211,
        "ta</w>": 2212,
        "tab": 2213,
        "table</w>": 2214,
        "tables</w>": 2215,
        "tage</w>": 2216,
        "tail</w>": 2217,
        "tain": 2218,
        "tain</w>": 2219,
        "tains</w>": 2220,
        "take</w>": 2221,
        "taken</w>": 2222,
        "takes</w>": 2223,
        "taking</w>": 2224,
        "tal": 2225,
        "talking</w>": 2226,
        "tall</w>": 2227,
        "tan": 2228,
        "tan</w>": 2229,
        "tar": 2230,
        "tarmac</w>": 2231,
        "tation</w>": 2232,
        "te": 2233,
        "te</w>": 2234,
        "tea</w>": 2235,
        "team</w>": 2236,
        "ted</w>": 2237,
        "teddy</w>": 2238,
        "tee": 2239,
        "teen": 2240,
        "teeth</w>": 2241,
        "tel</w>": 2242,
        "tele": 2243,
        "televisi": 2244,
        "television</w>": 2245,
        "temp": 2246,
        "ten": 2247,
        "ten</w>": 2248,
        "tennis</w>": 2249,
        "tensi": 2250,
        "tent</w>": 2251,
        "ter": 2252,
        "ter</w>": 2253,
        "tered</w>": 2254,
        "termin": 2255,
        "terminal</w>": 2256,
        "ters</w>": 2257,
        "tes</w>": 2258,
        "th": 2259,
        "th</w>": 2260,
        "that</w>": 2261,
        "thday</w>": 2262,
        "the": 2263,
        "the</w>": 2264,
        "their</w>": 2265,
        "them</w>": 2266,
        "ther</w>": 2267,
        "there</w>": 2268,
        "they</w>": 2269,
        "thing</w>": 2270,
        "things</w>": 2271,
        "this</w>": 2272,
        "three</w>": 2273,
        "thro": 2274,
        "through</w>": 2275,
        "throw</w>": 2276,
        "throwing</w>": 2277,
        "throws</w>": 2278,
        "ti": 2279,
        "tic": 2280,
        "tie</w>": 2281,
        "tied</w>": 2282,
        "ties</w>": 2283,
        "til": 2284,
        "tile</w>": 2285,
        "tiled</w>": 2286,
        "time</w>": 2287,
        "ting</w>": 2288,
        "tiny</w>": 2289,
        "tion</w>": 2290,
        "tions</w>": 2291,
        "tique</w>": 2292,
        "tire</w>": 2293,
        "tit": 2294,
        "tive</w>": 2295,
        "tle</w>": 2296,
        "tly</w>": 2297,
        "tment</w>": 2298,
        "to": 2299,
        "to</w>": 2300,
        "toa": 2301,
        "todd": 2302,
        "toddler</w>": 2303,
        "toes</w>": 2304,
        "toge": 2305,
        "together</w>": 2306,
        "toil": 2307,
        "toilet</w>": 2308,
        "toilets</w>": 2309,
        "toma": 2310,
        "tomato</w>": 2311,
        "tomatoes</w>": 2312,
        "ton": 2313,
        "ton</w>": 2314,
        "too": 2315,
        "tooth": 2316,
        "tooth</w>": 2317,
        "toothbrush</w>": 2318,
        "top</w>": 2319,
        "topp": 2320,
        "topped</w>": 2321,
        "toppings</w>": 2322,
        "tops</w>": 2323,
        "tor": 2324,
        "tor</w>": 2325,
        "tors</w>": 2326,
        "tou": 2327,
        "touching</w>": 2328,
        "tour</w>": 2329,
        "tow": 2330,
        "toward</w>": 2331,
        "towards</w>": 2332,
        "towel</w>": 2333,
        "towels</w>": 2334,
        "tower</w>": 2335,
        "town</w>": 2336,
        "toy</w>": 2337,
        "toys</w>": 2338,
        "tra": 2339,
        "track</w>": 2340,
        "tracks</w>": 2341,
        "traff": 2342,
        "traffic</w>": 2343,
        "trail": 2344,
        "trail</w>": 2345,
        "trailer</w>": 2346,
        "train</w>": 2347,
        "trains</w>": 2348,
        "tran": 2349,
        "transit</w>": 2350,
        "trash</w>": 2351,
        "travel": 2352,
        "traveling</w>": 2353,
        "tray</w>": 2354,
        "tre": 2355,
        "tree</w>": 2356,
        "trees</w>": 2357,
        "tri": 2358,
        "trick</w>": 2359,
        "tricks</w>": 2360,
        "tro": 2361,
        "tru": 2362,
        "truck</w>": 2363,
        "trucks</w>": 2364,
        "trun": 2365,
        "trunk</w>": 2366,
        "try</w>": 2367,
        "trying</w>": 2368,
        "ts</w>": 2369,
        "tted</w>": 2370,
        "tting</w>": 2371,
        "tty</w>": 2372,
        "tu": 2373,
        "tub</w>": 2374,
        "tuce</w>": 2375,
        "tur": 2376,
        "ture</w>": 2377,
        "tures</w>": 2378,
        "turn</w>": 2379,
        "turned</w>": 2380,
        "turning</w>": 2381,
        "tv</w>": 2382,
        "two</w>": 2383,
        "ty": 2384,
        "ty</w>": 2385,
        "type</w>": 2386,
        "types</w>": 2387,
        "u": 2388,
        "ue</w>": 2389,
        "ugh": 2390,
        "ugh</w>": 2391,
        "ul": 2392,
        "ulti": 2393,
        "um": 2394,
        "um</w>": 2395,
        "umb": 2396,
        "umbre": 2397,
        "umbrella</w>": 2398,
        "umbrellas</w>": 2399,
        "ump": 2400,
        "umpire</w>": 2401,
        "un": 2402,
        "und</w>": 2403,
        "under": 2404,
        "under</w>": 2405,
        "underneath</w>": 2406,
        "uni": 2407,
        "uniform": 2408,
        "uniform</w>": 2409,
        "uniforms</w>": 2410,
        "up": 2411,
        "up</w>": 2412,
        "upside</w>": 2413,
        "ur": 2414,
        "ur</w>": 2415,
        "ural</w>": 2416,
        "urban</w>": 2417,
        "urch</w>": 2418,
        "ure</w>": 2419,
        "ured</w>": 2420,
        "ures</w>": 2421,
        "urin": 2422,
        "urinals</w>": 2423,
        "uring</w>": 2424,
        "us</w>": 2425,
        "use</w>": 2426,
        "used</w>": 2427,
        "uses</w>": 2428,
        "using</w>": 2429,
        "ut": 2430,
        "utensi": 2431,
        "utensils</w>": 2432,
        "v": 2433,
        "v</w>": 2434,
        "va": 2435,
        "van": 2436,
        "van</w>": 2437,
        "vanity</w>": 2438,
        "vari": 2439,
        "varie": 2440,
        "variety</w>": 2441,
        "various</w>": 2442,
        "vase</w>": 2443,
        "vases</w>": 2444,
        "ve": 2445,
        "ve</w>": 2446,
        "ved</w>": 2447,
        "vege": 2448,
        "vegetable</w>": 2449,
        "vegetables</w>": 2450,
        "veggi": 2451,
        "veggies</w>": 2452,
        "vehic": 2453,
        "vehicle</w>": 2454,
        "vehicles</w>": 2455,
        "vel": 2456,
        "vel</w>": 2457,
        "vement</w>": 2458,
        "ven": 2459,
        "ven</w>": 2460,
        "ver": 2461,
        "ver</w>": 2462,
        "veral</w>": 2463,
        "verti": 2464,
        "very</w>": 2465,
        "ves</w>": 2466,
        "vest</w>": 2467,
        "vi": 2468,
        "vid": 2469,
        "video</w>": 2470,
        "view</w>": 2471,
        "vin": 2472,
        "ving</w>": 2473,
        "vintage</w>": 2474,
        "visi": 2475,
        "vy</w>": 2476,
        "w": 2477,
        "w</w>": 2478,
        "wa": 2479,
        "waiting</w>": 2480,
        "waits</w>": 2481,
        "wal": 2482,
        "walk": 2483,
        "walk</w>": 2484,
        "walking</w>": 2485,
        "walks</w>": 2486,
        "walkway</w>": 2487,
        "wall</w>": 2488,
        "walls</w>": 2489,
        "ward</w>": 2490,
        "ware</w>": 2491,
        "was</w>": 2492,
        "wash": 2493,
        "wat": 2494,
        "watch</w>": 2495,
        "watches</w>": 2496,
        "watching</w>": 2497,
        "water": 2498,
        "water</w>": 2499,
        "wave</w>": 2500,
        "waves</w>": 2501,
        "way</w>": 2502,
        "ways</w>": 2503,
        "we": 2504,
        "wearing</w>": 2505,
        "wed</w>": 2506,
        "wedding</w>": 2507,
        "ween</w>": 2508,
        "wel</w>": 2509,
        "well</w>": 2510,
        "wer</w>": 2511,
        "wers</w>": 2512,
        "wet": 2513,
        "wet</w>": 2514,
        "wetsuit</w>": 2515,
        "wh": 2516,
        "what</w>": 2517,
        "whe": 2518,
        "wheel</w>": 2519,
        "where</w>": 2520,
        "whi": 2521,
        "which</w>": 2522,
        "while</w>": 2523,
        "white</w>": 2524,
        "who": 2525,
        "who</w>": 2526,
        "wi": 2527,
        "wide</w>": 2528,
        "wii</w>": 2529,
        "wil": 2530,
        "wild</w>": 2531,
        "win": 2532,
        "windo": 2533,
        "window</w>": 2534,
        "windows</w>": 2535,
        "wine</w>": 2536,
        "wing</w>": 2537,
        "winter</w>": 2538,
        "wire</w>": 2539,
        "with": 2540,
        "with</w>": 2541,
        "wn": 2542,
        "wn</w>": 2543,
        "wo": 2544,
        "wo</w>": 2545,
        "wom": 2546,
        "woman</w>": 2547,
        "women</w>": 2548,
        "wood": 2549,
        "wood</w>": 2550,
        "wooded</w>": 2551,
        "wooden</w>": 2552,
        "woods</w>": 2553,
        "wor": 2554,
        "work</w>": 2555,
        "working</w>": 2556,
        "wr": 2557,
        "wra": 2558,
        "wrapped</w>": 2559,
        "writ": 2560,
        "writing</w>": 2561,
        "written</w>": 2562,
        "ws</w>": 2563,
        "x": 2564,
        "x</w>": 2565,
        "xes</w>": 2566,
        "xing</w>": 2567,
        "xt</w>": 2568,
        "y": 2569,
        "y</w>": 2570,
        "yard</w>": 2571,
        "yc": 2572,
        "yellow</w>": 2573,
        "yer</w>": 2574,
        "ying</w>": 2575,
        "you": 2576,
        "young</w>": 2577,
        "ys</w>": 2578,
        "z": 2579,
        "ze</w>": 2580,
        "zeb": 2581,
        "zebra</w>": 2582,
        "zebras</w>": 2583,
        "zed</w>": 2584,
        "zer</w>": 2585,
        "zoo</w>": 2586,
        "zz": 2587
    }
}