{
    "vocab_size": 7499,
    "index_to_word": {
        "0": "<S>",
        "1": "</S>",
        "2": "<PAD>",
        "3": "\n",
        "4": "!",
        "5": "\"",
        "6": "#",
        "7": "$",
        "8": "%",
        "9": "&",
        "10": "'",
        "11": "(",
        "12": ")",
        "13": "*",
        "14": "+",
        "15": ",",
        "16": "-",
        "17": ".",
        "18": "/",
        "19": "0",
        "20": "00</w>",
        "21": "0</w>",
        "22": "1",
        "23": "10</w>",
        "24": "11</w>",
        "25": "12</w>",
        "26": "19",
        "27": "1</w>",
        "28": "2",
        "29": "20",
        "30": "2</w>",
        "31": "3",
        "32": "3</w>",
        "33": "4",
        "34": "4</w>",
        "35": "5",
        "36": "50</w>",
        "37": "5</w>",
        "38": "6",
        "39": "6</w>",
        "40": "7",
        "41": "7</w>",
        "42": "8",
        "43": "8</w>",
        "44": "9",
        "45": "9</w>",
        "46": ":",
        "47": ";",
        "48": "</w>",
        "49": "=",
        "50": ">",
        "51": "?",
        "52": "@",
        "53": "A",
        "54": "A</w>",
        "55": "ACK</w>",
        "56": "AD",
        "57": "AD</w>",
        "58": "AIR",
        "59": "AIR</w>",
        "60": "AL",
        "61": "AL</w>",
        "62": "ALL</w>",
        "63": "AM",
        "64": "AN",
        "65": "AN</w>",
        "66": "AND",
        "67": "AND</w>",
        "68": "ANI",
        "69": "ANT</w>",
        "70": "AP",
        "71": "AR",
        "72": "AR</w>",
        "73": "ARD</w>",
        "74": "ARE",
        "75": "ARE</w>",
        "76": "ARING</w>",
        "77": "AROUND</w>",
        "78": "AS</w>",
        "79": "AT",
        "80": "AT</w>",
        "81": "ATE</w>",
        "82": "ATING</w>",
        "83": "Adult</w>",
        "84": "Adults</w>",
        "85": "Afri",
        "86": "African</w>",
        "87": "Air",
        "88": "Air</w>",
        "89": "Airlines</w>",
        "90": "Airplane</w>",
        "91": "Airplanes</w>",
        "92": "Airways</w>",
        "93": "Al",
        "94": "All</w>",
        "95": "Altered</w>",
        "96": "Am",
        "97": "American</w>",
        "98": "An",
        "99": "An</w>",
        "100": "And</w>",
        "101": "Ani",
        "102": "Anim",
        "103": "Animals</w>",
        "104": "Antique</w>",
        "105": "App",
        "106": "Apple</w>",
        "107": "Apples</w>",
        "108": "Ar",
        "109": "Army</w>",
        "110": "Asian</w>",
        "111": "Assor",
        "112": "Assorted</w>",
        "113": "Assortment</w>",
        "114": "At</w>",
        "115": "Au",
        "116": "Ave</w>",
        "117": "Avenue</w>",
        "118": "B",
        "119": "B</w>",
        "120": "BA",
        "121": "BABY</w>",
        "122": "BALL</w>",
        "123": "BAN",
        "124": "BASEBALL</w>",
        "125": "BATH",
        "126": "BATHROOM</w>",
        "127": "BB",
        "128": "BBQ</w>",
        "129": "BE",
        "130": "BEA",
        "131": "BEACH</w>",
        "132": "BEAR</w>",
        "133": "BED</w>",
        "134": "BEE</w>",
        "135": "BEN",
        "136": "BENCH</w>",
        "137": "BI",
        "138": "BIG</w>",
        "139": "BIKE</w>",
        "140": "BIR",
        "141": "BIRD</w>",
        "142": "BL",
        "143": "BLACK</w>",
        "144": "BLUE</w>",
        "145": "BO",
        "146": "BOAR",
        "147": "BOARD</w>",
        "148": "BOO",
        "149": "BOY</w>",
        "150": "BRE",
        "151": "BRI",
        "152": "BRO",
        "153": "BROWN</w>",
        "154": "BU",
        "155": "BUIL",
        "156": "BUILDING</w>",
        "157": "BUS</w>",
        "158": "BY</w>",
        "159": "Ba",
        "160": "Baby</w>",
        "161": "Back</w>",
        "162": "Baked</w>",
        "163": "Ban",
        "164": "Banana</w>",
        "165": "Bananas</w>",
        "166": "Bar",
        "167": "Baseball</w>",
        "168": "Bat",
        "169": "Bath",
        "170": "Bathroom</w>",
        "171": "Batter</w>",
        "172": "Be",
        "173": "Beach</w>",
        "174": "Bear</w>",
        "175": "Beautiful</w>",
        "176": "Bed",
        "177": "Bedroom</w>",
        "178": "Ben",
        "179": "Ben</w>",
        "180": "Bi",
        "181": "Bicyc",
        "182": "Bicycle</w>",
        "183": "Bicycles</w>",
        "184": "Big</w>",
        "185": "Bir",
        "186": "Bird</w>",
        "187": "Birds</w>",
        "188": "Birthday</w>",
        "189": "Bl",
        "190": "Black</w>",
        "191": "Blue</w>",
        "192": "Blurry</w>",
        "193": "Bo",
        "194": "Boat</w>",
        "195": "Boats</w>",
        "196": "Bow",
        "197": "Bowl</w>",
        "198": "Boy</w>",
        "199": "Boys</w>",
        "200": "Br",
        "201": "Brea",
        "202": "Breakfast</w>",
        "203": "Bri",
        "204": "Bright</w>",
        "205": "British</w>",
        "206": "Bro",
        "207": "Broadway</w>",
        "208": "Broccoli</w>",
        "209": "Brown</w>",
        "210": "Bu",
        "211": "Buil",
        "212": "Bun",
        "213": "Bunches</w>",
        "214": "Bus</w>",
        "215": "Buses</w>",
        "216": "C",
        "217": "C</w>",
        "218": "CA",
        "219": "CAKE</w>",
        "220": "CAR",
        "221": "CARS</w>",
        "222": "CAT</w>",
        "223": "CD</w>",
        "224": "CE",
        "225": "CE</w>",
        "226": "CEL",
        "227": "CH",
        "228": "CH</w>",
        "229": "CHIL",
        "230": "CHILD</w>",
        "231": "CHING</w>",
        "232": "CITY</w>",
        "233": "CK",
        "234": "CK</w>",
        "235": "CKS</w>",
        "236": "CLO",
        "237": "CLOCK</w>",
        "238": "CO",
        "239": "COM",
        "240": "COMPU",
        "241": "COMPUTER</w>",
        "242": "CON",
        "243": "COR",
        "244": "COU",
        "245": "COUR",
        "246": "COURT</w>",
        "247": "CRO",
        "248": "CU",
        "249": "Ca",
        "250": "Cali",
        "251": "Can",
        "252": "Canada</w>",
        "253": "Canadian</w>",
        "254": "Car",
        "255": "Car</w>",
        "256": "Carro",
        "257": "Carrots</w>",
        "258": "Cars</w>",
        "259": "Cat",
        "260": "Cat</w>",
        "261": "Cats</w>",
        "262": "Cattle</w>",
        "263": "Ch",
        "264": "Che",
        "265": "Chee",
        "266": "Chic",
        "267": "Chicken</w>",
        "268": "Chil",
        "269": "Child</w>",
        "270": "Children</w>",
        "271": "China</w>",
        "272": "Chinese</w>",
        "273": "Cho",
        "274": "Chocolate</w>",
        "275": "Christmas</w>",
        "276": "City</w>",
        "277": "Cla",
        "278": "Clo",
        "279": "Clock</w>",
        "280": "Close</w>",
        "281": "Closeup</w>",
        "282": "Clu",
        "283": "Co",
        "284": "Coca</w>",
        "285": "Col",
        "286": "Cola</w>",
        "287": "Colo",
        "288": "Color",
        "289": "Colorful</w>",
        "290": "Com",
        "291": "Commercial</w>",
        "292": "Commuter</w>",
        "293": "Compu",
        "294": "Computer</w>",
        "295": "Con",
        "296": "Cooked</w>",
        "297": "Cor",
        "298": "Cou",
        "299": "Couple</w>",
        "300": "Cow</w>",
        "301": "Cows</w>",
        "302": "Cro",
        "303": "Cross</w>",
        "304": "Crow",
        "305": "Crowd</w>",
        "306": "Cu",
        "307": "Cute</w>",
        "308": "D",
        "309": "D</w>",
        "310": "DE",
        "311": "DE</w>",
        "312": "DER</w>",
        "313": "DES",
        "314": "DESK</w>",
        "315": "DI",
        "316": "DIFF",
        "317": "DIFFER",
        "318": "DIFFERENT</w>",
        "319": "DING</w>",
        "320": "DIS",
        "321": "DISPLAY</w>",
        "322": "DO",
        "323": "DOG</w>",
        "324": "DOWN</w>",
        "325": "DR",
        "326": "DRE",
        "327": "DS</w>",
        "328": "DV",
        "329": "DY</w>",
        "330": "Da",
        "331": "Dark</w>",
        "332": "De",
        "333": "Decker</w>",
        "334": "Decora",
        "335": "Del",
        "336": "Delta</w>",
        "337": "Di",
        "338": "Different</w>",
        "339": "Dis",
        "340": "Do",
        "341": "Dog</w>",
        "342": "Dogs</w>",
        "343": "Don",
        "344": "Donuts</w>",
        "345": "Doorway</w>",
        "346": "Dou",
        "347": "Double</w>",
        "348": "Dozens</w>",
        "349": "Du",
        "350": "E",
        "351": "E</w>",
        "352": "EATING</w>",
        "353": "EB",
        "354": "ED</w>",
        "355": "EE",
        "356": "EL",
        "357": "ELD</w>",
        "358": "ELEP",
        "359": "ELEPHAN",
        "360": "ELEPHANT</w>",
        "361": "EN",
        "362": "EN</w>",
        "363": "ENT</w>",
        "364": "EP",
        "365": "ER",
        "366": "ER</w>",
        "367": "ERS</w>",
        "368": "ES</w>",
        "369": "ET</w>",
        "370": "EW</w>",
        "371": "Eight</w>",
        "372": "El",
        "373": "Ele",
        "374": "Elec",
        "375": "Elephant</w>",
        "376": "Elephants</w>",
        "377": "Emp",
        "378": "Empty</w>",
        "379": "En",
        "380": "Eng",
        "381": "England</w>",
        "382": "English</w>",
        "383": "Eu",
        "384": "European</w>",
        "385": "Ex",
        "386": "Ex</w>",
        "387": "F",
        "388": "F</w>",
        "389": "FF",
        "390": "FF</w>",
        "391": "FI",
        "392": "FIELD</w>",
        "393": "FIRE</w>",
        "394": "FLO",
        "395": "FLYING</w>",
        "396": "FO",
        "397": "FOOD</w>",
        "398": "FOR</w>",
        "399": "FRI",
        "400": "FRIS",
        "401": "FRISBEE</w>",
        "402": "FRO",
        "403": "FROM</w>",
        "404": "FRONT</w>",
        "405": "FU",
        "406": "FUL</w>",
        "407": "Fam",
        "408": "Family</w>",
        "409": "Fe",
        "410": "Female</w>",
        "411": "Fi",
        "412": "Fire</w>",
        "413": "Five</w>",
        "414": "Fla",
        "415": "Flo",
        "416": "Flowers</w>",
        "417": "Fo",
        "418": "Food</w>",
        "419": "For",
        "420": "Force</w>",
        "421": "Four</w>",
        "422": "Fre",
        "423": "French</w>",
        "424": "Fresh</w>",
        "425": "Fri",
        "426": "Friends</w>",
        "427": "Frisbee</w>",
        "428": "Frisbees</w>",
        "429": "Fro",
        "430": "Fruit</w>",
        "431": "Fruits</w>",
        "432": "Fu",
        "433": "G",
        "434": "G</w>",
        "435": "GA",
        "436": "GAM",
        "437": "GAME</w>",
        "438": "GE",
        "439": "GE</w>",
        "440": "GH",
        "441": "GH</w>",
        "442": "GHT</w>",
        "443": "GI",
        "444": "GIR",
        "445": "GIRA",
        "446": "GIRAFF",
        "447": "GIRAFFE</w>",
        "448": "GIRL</w>",
        "449": "GLA",
        "450": "GO",
        "451": "GOING</w>",
        "452": "GRA",
        "453": "GRASS</w>",
        "454": "GRE",
        "455": "GREEN</w>",
        "456": "GRO",
        "457": "GROUND</w>",
        "458": "GROUP</w>",
        "459": "GS</w>",
        "460": "GU",
        "461": "German</w>",
        "462": "Gi",
        "463": "Gir",
        "464": "Giraff",
        "465": "Giraffe</w>",
        "466": "Giraffes</w>",
        "467": "Girl</w>",
        "468": "Girls</w>",
        "469": "Gla",
        "470": "Go",
        "471": "Gol",
        "472": "Gra",
        "473": "Graff",
        "474": "Graffiti</w>",
        "475": "Gre",
        "476": "Green</w>",
        "477": "Grey</w>",
        "478": "Gri",
        "479": "Gro",
        "480": "Group</w>",
        "481": "Groups</w>",
        "482": "Gu",
        "483": "Guy</w>",
        "484": "H",
        "485": "HAN",
        "486": "HAND</w>",
        "487": "HAS</w>",
        "488": "HER",
        "489": "HER</w>",
        "490": "HI",
        "491": "HIGH</w>",
        "492": "HIS</w>",
        "493": "HO",
        "494": "HOL",
        "495": "HOLDING</w>",
        "496": "HOR",
        "497": "HORSE</w>",
        "498": "Ha",
        "499": "Hal",
        "500": "Half</w>",
        "501": "Halloween</w>",
        "502": "Han",
        "503": "Hand</w>",
        "504": "Hands</w>",
        "505": "Happ",
        "506": "Happy</w>",
        "507": "Har",
        "508": "He",
        "509": "He</w>",
        "510": "Hel",
        "511": "Her",
        "512": "Herd</w>",
        "513": "Here</w>",
        "514": "Ho",
        "515": "Home</w>",
        "516": "Hor",
        "517": "Horse</w>",
        "518": "Horses</w>",
        "519": "Hot</w>",
        "520": "Hu",
        "521": "I",
        "522": "I</w>",
        "523": "IC",
        "524": "IC</w>",
        "525": "ICE</w>",
        "526": "IL",
        "527": "ILE</w>",
        "528": "ILING</w>",
        "529": "IMA",
        "530": "IMAGE</w>",
        "531": "IN",
        "532": "IN</w>",
        "533": "ING</w>",
        "534": "INK</w>",
        "535": "INSIDE</w>",
        "536": "IR",
        "537": "IR</w>",
        "538": "IRE</w>",
        "539": "IS</w>",
        "540": "IT",
        "541": "IT</w>",
        "542": "ITE</w>",
        "543": "ITS</w>",
        "544": "ITY</w>",
        "545": "Ima",
        "546": "In",
        "547": "In</w>",
        "548": "Indian</w>",
        "549": "Inside</w>",
        "550": "Inter",
        "551": "Interior</w>",
        "552": "Is</w>",
        "553": "It</w>",
        "554": "Ital",
        "555": "Italian</w>",
        "556": "J",
        "557": "JUM",
        "558": "JUMPING</w>",
        "559": "Ja",
        "560": "Jap",
        "561": "Japanese</w>",
        "562": "Je",
        "563": "Jet</w>",
        "564": "Jo",
        "565": "K",
        "566": "K</w>",
        "567": "KE</w>",
        "568": "KED</w>",
        "569": "KING</w>",
        "570": "KIT",
        "571": "KITCHEN</w>",
        "572": "KS</w>",
        "573": "Kids</w>",
        "574": "Kit",
        "575": "Kitchen</w>",
        "576": "Kites</w>",
        "577": "L",
        "578": "L</w>",
        "579": "LA",
        "580": "LAR",
        "581": "LARGE</w>",
        "582": "LD</w>",
        "583": "LE",
        "584": "LE</w>",
        "585": "LES</w>",
        "586": "LI",
        "587": "LIT",
        "588": "LITTLE</w>",
        "589": "LIVING</w>",
        "590": "LL",
        "591": "LO",
        "592": "LOO",
        "593": "LOOKING</w>",
        "594": "LOT</w>",
        "595": "LOTS</w>",
        "596": "LOW</w>",
        "597": "LS</w>",
        "598": "LY</w>",
        "599": "LYING</w>",
        "600": "La",
        "601": "Lady</w>",
        "602": "Lap",
        "603": "Laptop</w>",
        "604": "Large</w>",
        "605": "Le",
        "606": "Lea",
        "607": "Li",
        "608": "Light</w>",
        "609": "Little</w>",
        "610": "Living</w>",
        "611": "Lo",
        "612": "Lon",
        "613": "London</w>",
        "614": "Lone</w>",
        "615": "Long</w>",
        "616": "Loo",
        "617": "Looking</w>",
        "618": "Lots</w>",
        "619": "Lu",
        "620": "Luggage</w>",
        "621": "M",
        "622": "M</w>",
        "623": "MA",
        "624": "MAL",
        "625": "MAN</w>",
        "626": "ME",
        "627": "MEN</w>",
        "628": "MIR",
        "629": "MIRRO",
        "630": "MIRROR</w>",
        "631": "MO",
        "632": "MOTO",
        "633": "MOTOR",
        "634": "MOTORC",
        "635": "Ma",
        "636": "Mac</w>",
        "637": "Male</w>",
        "638": "Man",
        "639": "Man</w>",
        "640": "Many</w>",
        "641": "Mar",
        "642": "Mc",
        "643": "Me",
        "644": "Meat</w>",
        "645": "Men</w>",
        "646": "Mex",
        "647": "Mexican</w>",
        "648": "Mi",
        "649": "Mic",
        "650": "Mil",
        "651": "Military</w>",
        "652": "Mo",
        "653": "Mod",
        "654": "Modern</w>",
        "655": "Mon",
        "656": "Mother</w>",
        "657": "Motor",
        "658": "Motorcycle</w>",
        "659": "Motorcycles</w>",
        "660": "Mu",
        "661": "Multi",
        "662": "Multi</w>",
        "663": "Multiple</w>",
        "664": "N",
        "665": "N</w>",
        "666": "NE",
        "667": "NE</w>",
        "668": "NEAR</w>",
        "669": "NEXT</w>",
        "670": "NG</w>",
        "671": "NIS</w>",
        "672": "NO",
        "673": "NS</w>",
        "674": "NT</w>",
        "675": "Na",
        "676": "Ne",
        "677": "New</w>",
        "678": "Nintendo</w>",
        "679": "No",
        "680": "No</w>",
        "681": "Nor",
        "682": "Numer",
        "683": "Numerous</w>",
        "684": "O",
        "685": "O</w>",
        "686": "OD</w>",
        "687": "OF</w>",
        "688": "OLD</w>",
        "689": "OM",
        "690": "OM</w>",
        "691": "ON",
        "692": "ON</w>",
        "693": "ONE</w>",
        "694": "OPEN</w>",
        "695": "OR",
        "696": "OR</w>",
        "697": "OTHER</w>",
        "698": "OU",
        "699": "OUN",
        "700": "OUND</w>",
        "701": "OUNG</w>",
        "702": "OUT",
        "703": "OUT</w>",
        "704": "OVER</w>",
        "705": "Obama</w>",
        "706": "Off",
        "707": "Ol",
        "708": "Old</w>",
        "709": "Older</w>",
        "710": "Olym",
        "711": "Olympic</w>",
        "712": "On",
        "713": "On</w>",
        "714": "One</w>",
        "715": "Open</w>",
        "716": "Or",
        "717": "Orange</w>",
        "718": "Oranges</w>",
        "719": "Ori",
        "720": "Out",
        "721": "Outdoor</w>",
        "722": "Outside</w>",
        "723": "P",
        "724": "P</w>",
        "725": "PA",
        "726": "PAR",
        "727": "PARK</w>",
        "728": "PARKED</w>",
        "729": "PE",
        "730": "PEN</w>",
        "731": "PEO",
        "732": "PEOPLE</w>",
        "733": "PER",
        "734": "PERSON</w>",
        "735": "PHO",
        "736": "PHONE</w>",
        "737": "PHOTO</w>",
        "738": "PI",
        "739": "PIC",
        "740": "PICT",
        "741": "PICTURE</w>",
        "742": "PING</w>",
        "743": "PIZZ",
        "744": "PIZZA</w>",
        "745": "PL",
        "746": "PLA",
        "747": "PLAN",
        "748": "PLANE</w>",
        "749": "PLATE</w>",
        "750": "PLAY",
        "751": "PLAY</w>",
        "752": "PLAYING</w>",
        "753": "PLE</w>",
        "754": "PO",
        "755": "PS</w>",
        "756": "PU",
        "757": "Pa",
        "758": "Pair</w>",
        "759": "Pan",
        "760": "Par",
        "761": "Park</w>",
        "762": "Parking</w>",
        "763": "Pass",
        "764": "Passenger</w>",
        "765": "Passengers</w>",
        "766": "Pe",
        "767": "Pede",
        "768": "Pedestri",
        "769": "Pedestrians</w>",
        "770": "People</w>",
        "771": "Per",
        "772": "Person</w>",
        "773": "Pho",
        "774": "Phone</w>",
        "775": "Photo",
        "776": "Photo</w>",
        "777": "Pi",
        "778": "Pic",
        "779": "Picture</w>",
        "780": "Pie",
        "781": "Pink</w>",
        "782": "Pit",
        "783": "Pizz",
        "784": "Pizza</w>",
        "785": "Pla",
        "786": "Plane</w>",
        "787": "Plate</w>",
        "788": "Plates</w>",
        "789": "Player</w>",
        "790": "Po",
        "791": "Pol",
        "792": "Police</w>",
        "793": "Pre",
        "794": "Pro",
        "795": "Professional</w>",
        "796": "Pu",
        "797": "Public</w>",
        "798": "Pur",
        "799": "Purple</w>",
        "800": "Q",
        "801": "Q</w>",
        "802": "Qu",
        "803": "Que",
        "804": "R",
        "805": "R</w>",
        "806": "RA",
        "807": "RE",
        "808": "RED</w>",
        "809": "REE</w>",
        "810": "RI",
        "811": "RIDING</w>",
        "812": "RO",
        "813": "ROAD</w>",
        "814": "ROOM</w>",
        "815": "RU",
        "816": "RUN",
        "817": "Ra",
        "818": "Re",
        "819": "Red</w>",
        "820": "Ri",
        "821": "Ro",
        "822": "Road</w>",
        "823": "Room</w>",
        "824": "Row</w>",
        "825": "Rows</w>",
        "826": "Ru",
        "827": "S",
        "828": "S</w>",
        "829": "SC",
        "830": "SE",
        "831": "SE</w>",
        "832": "SES</w>",
        "833": "SEVERAL</w>",
        "834": "SH",
        "835": "SH</w>",
        "836": "SHO",
        "837": "SI",
        "838": "SIDE</w>",
        "839": "SIG",
        "840": "SIGN</w>",
        "841": "SINK</w>",
        "842": "SIT",
        "843": "SITTING</w>",
        "844": "SK",
        "845": "SKAT",
        "846": "SKATE",
        "847": "SKATE</w>",
        "848": "SKI",
        "849": "SKIING</w>",
        "850": "SKY</w>",
        "851": "SLOP",
        "852": "SM",
        "853": "SMALL</w>",
        "854": "SMILING</w>",
        "855": "SNO",
        "856": "SNOW</w>",
        "857": "SOME",
        "858": "SOME</w>",
        "859": "SON</w>",
        "860": "SS",
        "861": "SS</w>",
        "862": "ST",
        "863": "ST</w>",
        "864": "STAN",
        "865": "STANDING</w>",
        "866": "STO",
        "867": "STOP</w>",
        "868": "STRE",
        "869": "STREET</w>",
        "870": "STU",
        "871": "SU",
        "872": "SUR",
        "873": "SURF",
        "874": "SURF</w>",
        "875": "SUV</w>",
        "876": "Sa",
        "877": "San",
        "878": "San</w>",
        "879": "Sand",
        "880": "Sandwi",
        "881": "Sandwich</w>",
        "882": "Santa</w>",
        "883": "Sc",
        "884": "Scissors</w>",
        "885": "Se",
        "886": "Sea",
        "887": "Ser",
        "888": "Seven</w>",
        "889": "Several</w>",
        "890": "Sh",
        "891": "She",
        "892": "She</w>",
        "893": "Sheep</w>",
        "894": "Sho",
        "895": "Si",
        "896": "Siamese</w>",
        "897": "Side</w>",
        "898": "Sign</w>",
        "899": "Signs</w>",
        "900": "Sil",
        "901": "Silver</w>",
        "902": "Sin",
        "903": "Single</w>",
        "904": "Six</w>",
        "905": "Sk",
        "906": "Skate",
        "907": "Skate</w>",
        "908": "Skateboarder</w>",
        "909": "Ski",
        "910": "Skier</w>",
        "911": "Skiers</w>",
        "912": "Slic",
        "913": "Sliced</w>",
        "914": "Slices</w>",
        "915": "Sm",
        "916": "Small</w>",
        "917": "Smiling</w>",
        "918": "Snow",
        "919": "Snow</w>",
        "920": "Snowboarder</w>",
        "921": "Soc",
        "922": "Soccer</w>",
        "923": "Som",
        "924": "Some",
        "925": "Some</w>",
        "926": "Somebody</w>",
        "927": "Someone</w>",
        "928": "Sou",
        "929": "Sp",
        "930": "Spe",
        "931": "Spectators</w>",
        "932": "Squ",
        "933": "Square</w>",
        "934": "St",
        "935": "St</w>",
        "936": "Sta",
        "937": "Star",
        "938": "Starbucks</w>",
        "939": "Stat",
        "940": "Ste",
        "941": "Stop</w>",
        "942": "Stre",
        "943": "Street</w>",
        "944": "Stu",
        "945": "Stuffed</w>",
        "946": "Su",
        "947": "Sun",
        "948": "Sur",
        "949": "Surf",
        "950": "Surfer</w>",
        "951": "Surfers</w>",
        "952": "T",
        "953": "T</w>",
        "954": "TA",
        "955": "TABL",
        "956": "TABLE</w>",
        "957": "TABLES</w>",
        "958": "TAKING</w>",
        "959": "TE",
        "960": "TEN",
        "961": "TENNIS</w>",
        "962": "TER</w>",
        "963": "TH",
        "964": "TH</w>",
        "965": "THAT</w>",
        "966": "THE",
        "967": "THE</w>",
        "968": "THER",
        "969": "THER</w>",
        "970": "THERE</w>",
        "971": "THIS</w>",
        "972": "THREE</w>",
        "973": "TI",
        "974": "TING</w>",
        "975": "TLE</w>",
        "976": "TO",
        "977": "TO</w>",
        "978": "TOGE",
        "979": "TOGETHER</w>",
        "980": "TOIL",
        "981": "TOILET</w>",
        "982": "TOP</w>",
        "983": "TRA",
        "984": "TRACKS</w>",
        "985": "TRAIN</w>",
        "986": "TREE</w>",
        "987": "TRU",
        "988": "TRUCK</w>",
        "989": "TS</w>",
        "990": "TTING</w>",
        "991": "TV</w>",
        "992": "TWO</w>",
        "993": "TY</w>",
        "994": "Ta",
        "995": "Table</w>",
        "996": "Tall</w>",
        "997": "Te",
        "998": "Teddy</w>",
        "999": "Teen",
        "1000": "Ten",
        "1001": "Tennis</w>",
        "1002": "Th",
        "1003": "That</w>",
        "1004": "The</w>",
        "1005": "There</w>",
        "1006": "These</w>",
        "1007": "They</w>",
        "1008": "This</w>",
        "1009": "Those</w>",
        "1010": "Three</w>",
        "1011": "Ti",
        "1012": "To",
        "1013": "To</w>",
        "1014": "Toil",
        "1015": "Toilet</w>",
        "1016": "Touri",
        "1017": "Tourists</w>",
        "1018": "Tow</w>",
        "1019": "Tra",
        "1020": "Traffic</w>",
        "1021": "Train</w>",
        "1022": "Trains</w>",
        "1023": "Tru",
        "1024": "Truck</w>",
        "1025": "Two</w>",
        "1026": "U",
        "1027": "U</w>",
        "1028": "UE</w>",
        "1029": "UM",
        "1030": "UMBRE",
        "1031": "UMBRELLA</w>",
        "1032": "UN",
        "1033": "UND</w>",
        "1034": "UNDER</w>",
        "1035": "UP</w>",
        "1036": "UR",
        "1037": "URE</w>",
        "1038": "US",
        "1039": "US</w>",
        "1040": "Umbre",
        "1041": "Un",
        "1042": "Uni",
        "1043": "United</w>",
        "1044": "V",
        "1045": "V</w>",
        "1046": "VE",
        "1047": "VE</w>",
        "1048": "VEGE",
        "1049": "VER",
        "1050": "VER</w>",
        "1051": "VERY</w>",
        "1052": "VI",
        "1053": "VING</w>",
        "1054": "Va",
        "1055": "Vari",
        "1056": "Variety</w>",
        "1057": "Various</w>",
        "1058": "Ve",
        "1059": "Vege",
        "1060": "Vegetables</w>",
        "1061": "Vehic",
        "1062": "Vehicles</w>",
        "1063": "Very</w>",
        "1064": "Vi",
        "1065": "Victori",
        "1066": "View</w>",
        "1067": "Vintage</w>",
        "1068": "W",
        "1069": "W</w>",
        "1070": "WA",
        "1071": "WAL",
        "1072": "WALK</w>",
        "1073": "WALKING</w>",
        "1074": "WAT",
        "1075": "WATER</w>",
        "1076": "WAY</w>",
        "1077": "WE",
        "1078": "WEARING</w>",
        "1079": "WER</w>",
        "1080": "WH",
        "1081": "WHITE</w>",
        "1082": "WI",
        "1083": "WII</w>",
        "1084": "WIN",
        "1085": "WINDO",
        "1086": "WINDOW</w>",
        "1087": "WING</w>",
        "1088": "WITH</w>",
        "1089": "WN</w>",
        "1090": "WO",
        "1091": "WO</w>",
        "1092": "WOM",
        "1093": "WOMAN</w>",
        "1094": "Wa",
        "1095": "War</w>",
        "1096": "Wash",
        "1097": "Washington</w>",
        "1098": "Water</w>",
        "1099": "Way</w>",
        "1100": "We",
        "1101": "We</w>",
        "1102": "Well</w>",
        "1103": "Wh",
        "1104": "White</w>",
        "1105": "Wi",
        "1106": "Wii</w>",
        "1107": "Wil",
        "1108": "Win",
        "1109": "Wo",
        "1110": "Wom",
        "1111": "Woman</w>",
        "1112": "Women</w>",
        "1113": "Wood",
        "1114": "Wooden</w>",
        "1115": "Wor",
        "1116": "Workers</w>",
        "1117": "World</w>",
        "1118": "X",
        "1119": "X</w>",
        "1120": "Y",
        "1121": "Y</w>",
        "1122": "YC",
        "1123": "YCLE</w>",
        "1124": "YELLOW</w>",
        "1125": "YING</w>",
        "1126": "YOUNG</w>",
        "1127": "YS</w>",
        "1128": "Yellow</w>",
        "1129": "York</w>",
        "1130": "You",
        "1131": "You</w>",
        "1132": "Young</w>",
        "1133": "Z",
        "1134": "ZEB",
        "1135": "ZEBRAS</w>",
        "1136": "ZZ",
        "1137": "Zebra</w>",
        "1138": "Zebras</w>",
        "1139": "[",
        "1140": "\\",
        "1141": "]",
        "1142": "_",
        "1143": "`",
        "1144": "a",
        "1145": "a</w>",
        "1146": "ab",
        "1147": "abandoned</w>",
        "1148": "able</w>",
        "1149": "ables</w>",
        "1150": "abo",
        "1151": "aboard</w>",
        "1152": "about</w>",
        "1153": "above</w>",
        "1154": "ac",
        "1155": "acce",
        "1156": "accents</w>",
        "1157": "access",
        "1158": "accessories</w>",
        "1159": "accident</w>",
        "1160": "accompani",
        "1161": "accompanied</w>",
        "1162": "ace</w>",
        "1163": "ach</w>",
        "1164": "across</w>",
        "1165": "acti",
        "1166": "acting</w>",
        "1167": "action</w>",
        "1168": "activities</w>",
        "1169": "ad",
        "1170": "ad</w>",
        "1171": "ada</w>",
        "1172": "added</w>",
        "1173": "aded</w>",
        "1174": "adian</w>",
        "1175": "adjacent</w>",
        "1176": "adju",
        "1177": "adjusting</w>",
        "1178": "adjusts</w>",
        "1179": "admir",
        "1180": "admiring</w>",
        "1181": "ado",
        "1182": "ador",
        "1183": "adorable</w>",
        "1184": "adorned</w>",
        "1185": "ads</w>",
        "1186": "adult</w>",
        "1187": "adults</w>",
        "1188": "adverti",
        "1189": "advertisement</w>",
        "1190": "advertisements</w>",
        "1191": "advertising</w>",
        "1192": "aerial</w>",
        "1193": "af",
        "1194": "aff",
        "1195": "affixed</w>",
        "1196": "after",
        "1197": "after</w>",
        "1198": "afternoon</w>",
        "1199": "again",
        "1200": "against</w>",
        "1201": "age</w>",
        "1202": "aged</w>",
        "1203": "ages</w>",
        "1204": "agie</w>",
        "1205": "aging</w>",
        "1206": "ago</w>",
        "1207": "ahead</w>",
        "1208": "ahu",
        "1209": "ai",
        "1210": "air",
        "1211": "air</w>",
        "1212": "airborne</w>",
        "1213": "aircraft</w>",
        "1214": "airfield</w>",
        "1215": "airline</w>",
        "1216": "airliner</w>",
        "1217": "airlines</w>",
        "1218": "airplane</w>",
        "1219": "airplanes</w>",
        "1220": "airport</w>",
        "1221": "airs</w>",
        "1222": "airstrip</w>",
        "1223": "airy</w>",
        "1224": "aisle</w>",
        "1225": "ak</w>",
        "1226": "al",
        "1227": "al</w>",
        "1228": "ala",
        "1229": "alarm</w>",
        "1230": "alco",
        "1231": "alcohol</w>",
        "1232": "ald</w>",
        "1233": "aled</w>",
        "1234": "alert</w>",
        "1235": "ales</w>",
        "1236": "ali",
        "1237": "alia</w>",
        "1238": "alie</w>",
        "1239": "aling</w>",
        "1240": "alized</w>",
        "1241": "all</w>",
        "1242": "alle",
        "1243": "allel</w>",
        "1244": "alley</w>",
        "1245": "allo",
        "1246": "allow</w>",
        "1247": "alls</w>",
        "1248": "ally</w>",
        "1249": "almat",
        "1250": "almon",
        "1251": "almost</w>",
        "1252": "alog</w>",
        "1253": "alone</w>",
        "1254": "along</w>",
        "1255": "alongside</w>",
        "1256": "already</w>",
        "1257": "als</w>",
        "1258": "also</w>",
        "1259": "altered</w>",
        "1260": "alumin",
        "1261": "aluminum</w>",
        "1262": "am",
        "1263": "am</w>",
        "1264": "ama",
        "1265": "ambu",
        "1266": "ambulance</w>",
        "1267": "ame",
        "1268": "american</w>",
        "1269": "amese</w>",
        "1270": "amid</w>",
        "1271": "amidst</w>",
        "1272": "aming</w>",
        "1273": "amon",
        "1274": "among</w>",
        "1275": "amongst</w>",
        "1276": "amount</w>",
        "1277": "ams</w>",
        "1278": "amusement</w>",
        "1279": "an",
        "1280": "an</w>",
        "1281": "analog</w>",
        "1282": "ance</w>",
        "1283": "ances</w>",
        "1284": "ancho",
        "1285": "anchored</w>",
        "1286": "ancient</w>",
        "1287": "and",
        "1288": "and</w>",
        "1289": "anda</w>",
        "1290": "andel",
        "1291": "aned</w>",
        "1292": "anese</w>",
        "1293": "ang",
        "1294": "anger</w>",
        "1295": "angle</w>",
        "1296": "angry</w>",
        "1297": "ani",
        "1298": "anim",
        "1299": "animal</w>",
        "1300": "animals</w>",
        "1301": "aning</w>",
        "1302": "anish</w>",
        "1303": "ank",
        "1304": "ano</w>",
        "1305": "another</w>",
        "1306": "ans</w>",
        "1307": "ant</w>",
        "1308": "antelo",
        "1309": "antelope</w>",
        "1310": "antique</w>",
        "1311": "ants</w>",
        "1312": "any",
        "1313": "any</w>",
        "1314": "ap",
        "1315": "apart</w>",
        "1316": "apartment</w>",
        "1317": "app",
        "1318": "appar",
        "1319": "appe",
        "1320": "appear</w>",
        "1321": "appearing</w>",
        "1322": "appears</w>",
        "1323": "appeti",
        "1324": "apping</w>",
        "1325": "apple</w>",
        "1326": "apples</w>",
        "1327": "appli",
        "1328": "appliance</w>",
        "1329": "appliances</w>",
        "1330": "appro",
        "1331": "approa",
        "1332": "approach</w>",
        "1333": "approaches</w>",
        "1334": "approaching</w>",
        "1335": "apron</w>",
        "1336": "aqu",
        "1337": "aquarium</w>",
        "1338": "ar",
        "1339": "ar</w>",
        "1340": "arch",
        "1341": "arch</w>",
        "1342": "arched</w>",
        "1343": "architec",
        "1344": "architectural</w>",
        "1345": "architecture</w>",
        "1346": "archway</w>",
        "1347": "ard</w>",
        "1348": "arded</w>",
        "1349": "ards</w>",
        "1350": "are",
        "1351": "are</w>",
        "1352": "area</w>",
        "1353": "areas</w>",
        "1354": "ared</w>",
        "1355": "arehouse</w>",
        "1356": "arena</w>",
        "1357": "ares</w>",
        "1358": "arge</w>",
        "1359": "ari",
        "1360": "arian</w>",
        "1361": "aring</w>",
        "1362": "arium</w>",
        "1363": "ark</w>",
        "1364": "arly</w>",
        "1365": "arm",
        "1366": "arm</w>",
        "1367": "arms</w>",
        "1368": "army</w>",
        "1369": "arn</w>",
        "1370": "around</w>",
        "1371": "arran",
        "1372": "arrange",
        "1373": "arranged</w>",
        "1374": "arrangement</w>",
        "1375": "array</w>",
        "1376": "arri",
        "1377": "arriving</w>",
        "1378": "arrow</w>",
        "1379": "arrows</w>",
        "1380": "ars</w>",
        "1381": "art",
        "1382": "art</w>",
        "1383": "arti",
        "1384": "artic",
        "1385": "artificial</w>",
        "1386": "artistic</w>",
        "1387": "artwork</w>",
        "1388": "ary</w>",
        "1389": "as",
        "1390": "as</w>",
        "1391": "ascen",
        "1392": "ascending</w>",
        "1393": "ash</w>",
        "1394": "asian</w>",
        "1395": "asleep</w>",
        "1396": "asp",
        "1397": "asparagus</w>",
        "1398": "asphalt</w>",
        "1399": "assemb",
        "1400": "assembly</w>",
        "1401": "assi",
        "1402": "assor",
        "1403": "assorted</w>",
        "1404": "assortment</w>",
        "1405": "ast</w>",
        "1406": "at",
        "1407": "at</w>",
        "1408": "ate",
        "1409": "ate</w>",
        "1410": "ated</w>",
        "1411": "ately</w>",
        "1412": "ater</w>",
        "1413": "ates</w>",
        "1414": "ath",
        "1415": "ath</w>",
        "1416": "ather</w>",
        "1417": "athlete</w>",
        "1418": "athletes</w>",
        "1419": "athletic</w>",
        "1420": "ati",
        "1421": "ating</w>",
        "1422": "ation</w>",
        "1423": "ational</w>",
        "1424": "ations</w>",
        "1425": "ative</w>",
        "1426": "atop</w>",
        "1427": "ats</w>",
        "1428": "atta",
        "1429": "attached</w>",
        "1430": "attemp",
        "1431": "attempt</w>",
        "1432": "attempting</w>",
        "1433": "attempts</w>",
        "1434": "atten",
        "1435": "attended</w>",
        "1436": "attending</w>",
        "1437": "attention</w>",
        "1438": "attered</w>",
        "1439": "atting</w>",
        "1440": "attire</w>",
        "1441": "attra",
        "1442": "attractive</w>",
        "1443": "ature</w>",
        "1444": "au",
        "1445": "audi",
        "1446": "audience</w>",
        "1447": "auti",
        "1448": "autifully</w>",
        "1449": "auto",
        "1450": "automobile</w>",
        "1451": "autum",
        "1452": "autumn</w>",
        "1453": "ava",
        "1454": "avai",
        "1455": "availa",
        "1456": "available</w>",
        "1457": "avo",
        "1458": "avoca",
        "1459": "avocado</w>",
        "1460": "aw",
        "1461": "awaiting</w>",
        "1462": "awaits</w>",
        "1463": "away</w>",
        "1464": "awning</w>",
        "1465": "b",
        "1466": "b</w>",
        "1467": "ba",
        "1468": "babies</w>",
        "1469": "bably</w>",
        "1470": "baby</w>",
        "1471": "back",
        "1472": "back</w>",
        "1473": "backdrop</w>",
        "1474": "backed</w>",
        "1475": "background</w>",
        "1476": "backhand</w>",
        "1477": "backpack</w>",
        "1478": "backpacks</w>",
        "1479": "backs</w>",
        "1480": "backseat</w>",
        "1481": "backwards</w>",
        "1482": "backyard</w>",
        "1483": "bacon</w>",
        "1484": "bad</w>",
        "1485": "bag</w>",
        "1486": "bage</w>",
        "1487": "bagel</w>",
        "1488": "bagels</w>",
        "1489": "baggage</w>",
        "1490": "bags</w>",
        "1491": "baked</w>",
        "1492": "bakery</w>",
        "1493": "baking</w>",
        "1494": "bal",
        "1495": "balance</w>",
        "1496": "balanced</w>",
        "1497": "balances</w>",
        "1498": "balancing</w>",
        "1499": "balcon",
        "1500": "balcony</w>",
        "1501": "bald</w>",
        "1502": "ball</w>",
        "1503": "ballo",
        "1504": "balloon</w>",
        "1505": "balloons</w>",
        "1506": "balls</w>",
        "1507": "bama</w>",
        "1508": "bamboo</w>",
        "1509": "ban",
        "1510": "ban</w>",
        "1511": "banan",
        "1512": "banana</w>",
        "1513": "bananas</w>",
        "1514": "band",
        "1515": "band</w>",
        "1516": "bandan",
        "1517": "bandana</w>",
        "1518": "bandoned</w>",
        "1519": "bank</w>",
        "1520": "banner</w>",
        "1521": "banquet</w>",
        "1522": "bar",
        "1523": "bar</w>",
        "1524": "barbe",
        "1525": "barbecu",
        "1526": "barbecue</w>",
        "1527": "barbed</w>",
        "1528": "barber</w>",
        "1529": "bare",
        "1530": "bare</w>",
        "1531": "barefoot</w>",
        "1532": "barely</w>",
        "1533": "barge</w>",
        "1534": "barn</w>",
        "1535": "barre",
        "1536": "barrel</w>",
        "1537": "barrels</w>",
        "1538": "barren</w>",
        "1539": "barri",
        "1540": "barrier</w>",
        "1541": "barriers</w>",
        "1542": "bars</w>",
        "1543": "bas",
        "1544": "base",
        "1545": "base</w>",
        "1546": "baseball</w>",
        "1547": "baseman</w>",
        "1548": "bases</w>",
        "1549": "basi",
        "1550": "basic</w>",
        "1551": "basil</w>",
        "1552": "basin</w>",
        "1553": "bask",
        "1554": "basket</w>",
        "1555": "basketball</w>",
        "1556": "baskets</w>",
        "1557": "bat",
        "1558": "bat</w>",
        "1559": "bath",
        "1560": "bath</w>",
        "1561": "bathing</w>",
        "1562": "bathroom</w>",
        "1563": "bathtub</w>",
        "1564": "bats</w>",
        "1565": "batter</w>",
        "1566": "batters</w>",
        "1567": "batting</w>",
        "1568": "bay</w>",
        "1569": "bb",
        "1570": "bbing</w>",
        "1571": "bble</w>",
        "1572": "bbles</w>",
        "1573": "bbling</w>",
        "1574": "bby</w>",
        "1575": "be",
        "1576": "be</w>",
        "1577": "bea",
        "1578": "beach</w>",
        "1579": "beached</w>",
        "1580": "beak</w>",
        "1581": "beam</w>",
        "1582": "bean</w>",
        "1583": "beani",
        "1584": "beanie</w>",
        "1585": "beans</w>",
        "1586": "bear</w>",
        "1587": "beard</w>",
        "1588": "bearded</w>",
        "1589": "bears</w>",
        "1590": "beat</w>",
        "1591": "beautiful</w>",
        "1592": "beautifully</w>",
        "1593": "because</w>",
        "1594": "bed",
        "1595": "bed</w>",
        "1596": "bedding</w>",
        "1597": "bedroom</w>",
        "1598": "beds</w>",
        "1599": "bedspread</w>",
        "1600": "bee</w>",
        "1601": "beef</w>",
        "1602": "been</w>",
        "1603": "beer</w>",
        "1604": "beers</w>",
        "1605": "before</w>",
        "1606": "beg",
        "1607": "begin</w>",
        "1608": "beginning</w>",
        "1609": "begins</w>",
        "1610": "behind</w>",
        "1611": "bei",
        "1612": "beige</w>",
        "1613": "being</w>",
        "1614": "bel",
        "1615": "bel</w>",
        "1616": "bell</w>",
        "1617": "bells</w>",
        "1618": "belly</w>",
        "1619": "belongings</w>",
        "1620": "below</w>",
        "1621": "belt</w>",
        "1622": "ben",
        "1623": "bench</w>",
        "1624": "benches</w>",
        "1625": "bend</w>",
        "1626": "bending</w>",
        "1627": "bends</w>",
        "1628": "bene",
        "1629": "beneath</w>",
        "1630": "bent</w>",
        "1631": "ber",
        "1632": "ber</w>",
        "1633": "berries</w>",
        "1634": "berry</w>",
        "1635": "bes</w>",
        "1636": "beside</w>",
        "1637": "besides</w>",
        "1638": "best</w>",
        "1639": "bet",
        "1640": "between</w>",
        "1641": "beverage</w>",
        "1642": "beverages</w>",
        "1643": "beyond</w>",
        "1644": "bi",
        "1645": "bib</w>",
        "1646": "bic",
        "1647": "bicyc",
        "1648": "bicycle</w>",
        "1649": "bicycles</w>",
        "1650": "bicyclist</w>",
        "1651": "bicyclists</w>",
        "1652": "bidet</w>",
        "1653": "bie</w>",
        "1654": "bies</w>",
        "1655": "big</w>",
        "1656": "bigger</w>",
        "1657": "bike</w>",
        "1658": "biker</w>",
        "1659": "bikers</w>",
        "1660": "bikes</w>",
        "1661": "bikin",
        "1662": "biking</w>",
        "1663": "bikini</w>",
        "1664": "bil",
        "1665": "bile</w>",
        "1666": "bill",
        "1667": "billboard</w>",
        "1668": "bin",
        "1669": "bin</w>",
        "1670": "bins</w>",
        "1671": "biplane</w>",
        "1672": "bir",
        "1673": "bird",
        "1674": "bird</w>",
        "1675": "birds</w>",
        "1676": "birthday</w>",
        "1677": "biscuit</w>",
        "1678": "biscuits</w>",
        "1679": "bit",
        "1680": "bit</w>",
        "1681": "bite</w>",
        "1682": "bites</w>",
        "1683": "biting</w>",
        "1684": "bl",
        "1685": "bla",
        "1686": "black",
        "1687": "black</w>",
        "1688": "blades</w>",
        "1689": "blan",
        "1690": "blanket</w>",
        "1691": "blankets</w>",
        "1692": "blazer</w>",
        "1693": "ble",
        "1694": "ble</w>",
        "1695": "blea",
        "1696": "bleachers</w>",
        "1697": "bled</w>",
        "1698": "blen",
        "1699": "blender</w>",
        "1700": "bles</w>",
        "1701": "bli",
        "1702": "blin",
        "1703": "blinds</w>",
        "1704": "bling</w>",
        "1705": "blo",
        "1706": "block</w>",
        "1707": "blocked</w>",
        "1708": "blocking</w>",
        "1709": "blocks</w>",
        "1710": "blon",
        "1711": "blond</w>",
        "1712": "blonde</w>",
        "1713": "bloo",
        "1714": "blood</w>",
        "1715": "blooming</w>",
        "1716": "bloss",
        "1717": "blow</w>",
        "1718": "blowing</w>",
        "1719": "blows</w>",
        "1720": "blu",
        "1721": "blue</w>",
        "1722": "blueb",
        "1723": "blueberries</w>",
        "1724": "blur",
        "1725": "blurred</w>",
        "1726": "blurry</w>",
        "1727": "bly</w>",
        "1728": "bo",
        "1729": "bo</w>",
        "1730": "boar",
        "1731": "board</w>",
        "1732": "boarded</w>",
        "1733": "boarder</w>",
        "1734": "boarders</w>",
        "1735": "boarding</w>",
        "1736": "boards</w>",
        "1737": "boardwalk</w>",
        "1738": "boat</w>",
        "1739": "boats</w>",
        "1740": "body</w>",
        "1741": "bom",
        "1742": "bone</w>",
        "1743": "boo",
        "1744": "boo</w>",
        "1745": "boogie</w>",
        "1746": "book",
        "1747": "book</w>",
        "1748": "bookcase</w>",
        "1749": "books</w>",
        "1750": "bookshelf</w>",
        "1751": "bookshelves</w>",
        "1752": "boot</w>",
        "1753": "booth</w>",
        "1754": "boots</w>",
        "1755": "bor",
        "1756": "bor</w>",
        "1757": "border</w>",
        "1758": "borhood</w>",
        "1759": "born</w>",
        "1760": "borne</w>",
        "1761": "bot",
        "1762": "bot</w>",
        "1763": "both</w>",
        "1764": "bott",
        "1765": "bottle</w>",
        "1766": "bottled</w>",
        "1767": "bottles</w>",
        "1768": "botto",
        "1769": "bottom</w>",
        "1770": "bou",
        "1771": "boul",
        "1772": "boun",
        "1773": "bouncing</w>",
        "1774": "bouquet</w>",
        "1775": "bow",
        "1776": "bow</w>",
        "1777": "bowl</w>",
        "1778": "bowling</w>",
        "1779": "bowls</w>",
        "1780": "bows</w>",
        "1781": "box</w>",
        "1782": "boxes</w>",
        "1783": "boxing</w>",
        "1784": "boy</w>",
        "1785": "boys</w>",
        "1786": "br",
        "1787": "bra",
        "1788": "bran",
        "1789": "branch</w>",
        "1790": "branches</w>",
        "1791": "brand</w>",
        "1792": "brary</w>",
        "1793": "bre",
        "1794": "brea",
        "1795": "bread</w>",
        "1796": "breads</w>",
        "1797": "break</w>",
        "1798": "breakfast</w>",
        "1799": "breaking</w>",
        "1800": "breast</w>",
        "1801": "bri",
        "1802": "brick</w>",
        "1803": "bricked</w>",
        "1804": "bricks</w>",
        "1805": "bride</w>",
        "1806": "bridge</w>",
        "1807": "bridle</w>",
        "1808": "brief",
        "1809": "briefcase</w>",
        "1810": "bright</w>",
        "1811": "brightly</w>",
        "1812": "bro",
        "1813": "broccoli</w>",
        "1814": "brocolli</w>",
        "1815": "broken</w>",
        "1816": "bron",
        "1817": "bronze</w>",
        "1818": "broth</w>",
        "1819": "brow",
        "1820": "brown</w>",
        "1821": "browni",
        "1822": "browns</w>",
        "1823": "bru",
        "1824": "brush</w>",
        "1825": "brushes</w>",
        "1826": "brushing</w>",
        "1827": "bs</w>",
        "1828": "bu",
        "1829": "bubble</w>",
        "1830": "bucket</w>",
        "1831": "buckets</w>",
        "1832": "bucks</w>",
        "1833": "buds</w>",
        "1834": "buff",
        "1835": "buffal",
        "1836": "buffalo</w>",
        "1837": "buffet</w>",
        "1838": "bug</w>",
        "1839": "buggy</w>",
        "1840": "buil",
        "1841": "building</w>",
        "1842": "buildings</w>",
        "1843": "built</w>",
        "1844": "bul",
        "1845": "bull",
        "1846": "bull</w>",
        "1847": "bulldog</w>",
        "1848": "bullet</w>",
        "1849": "bulls</w>",
        "1850": "bum",
        "1851": "bumper</w>",
        "1852": "bun",
        "1853": "bun</w>",
        "1854": "bunch</w>",
        "1855": "bunches</w>",
        "1856": "bund",
        "1857": "bundle</w>",
        "1858": "bundled</w>",
        "1859": "bunk</w>",
        "1860": "bunny</w>",
        "1861": "buns</w>",
        "1862": "bunt</w>",
        "1863": "bur",
        "1864": "burger</w>",
        "1865": "burgers</w>",
        "1866": "buried</w>",
        "1867": "burner</w>",
        "1868": "burners</w>",
        "1869": "burning</w>",
        "1870": "burnt</w>",
        "1871": "burri",
        "1872": "burrito</w>",
        "1873": "bus",
        "1874": "bus</w>",
        "1875": "buses</w>",
        "1876": "bush</w>",
        "1877": "bushes</w>",
        "1878": "business",
        "1879": "business</w>",
        "1880": "businesses</w>",
        "1881": "businessman</w>",
        "1882": "buss</w>",
        "1883": "busses</w>",
        "1884": "busted</w>",
        "1885": "busy</w>",
        "1886": "but",
        "1887": "but</w>",
        "1888": "butter",
        "1889": "butter</w>",
        "1890": "butterfly</w>",
        "1891": "button</w>",
        "1892": "buttons</w>",
        "1893": "buy</w>",
        "1894": "buying</w>",
        "1895": "by</w>",
        "1896": "c",
        "1897": "c</w>",
        "1898": "ca",
        "1899": "ca</w>",
        "1900": "cab",
        "1901": "cab</w>",
        "1902": "cabbage</w>",
        "1903": "cabin",
        "1904": "cabin</w>",
        "1905": "cabinet</w>",
        "1906": "cabinetry</w>",
        "1907": "cabinets</w>",
        "1908": "cable</w>",
        "1909": "cables</w>",
        "1910": "caboo",
        "1911": "caboose</w>",
        "1912": "cactus</w>",
        "1913": "cade</w>",
        "1914": "cafe</w>",
        "1915": "cafeteria</w>",
        "1916": "cage</w>",
        "1917": "caged</w>",
        "1918": "cages</w>",
        "1919": "cake</w>",
        "1920": "cakes</w>",
        "1921": "cal",
        "1922": "cal</w>",
        "1923": "calcu",
        "1924": "calculator</w>",
        "1925": "calf</w>",
        "1926": "calico</w>",
        "1927": "call</w>",
        "1928": "called</w>",
        "1929": "calm</w>",
        "1930": "calves</w>",
        "1931": "cam",
        "1932": "came</w>",
        "1933": "camel</w>",
        "1934": "camer",
        "1935": "camera</w>",
        "1936": "cameras</w>",
        "1937": "camoufla",
        "1938": "camouflage</w>",
        "1939": "camp</w>",
        "1940": "camper</w>",
        "1941": "camping</w>",
        "1942": "can",
        "1943": "can</w>",
        "1944": "canal</w>",
        "1945": "cand",
        "1946": "candies</w>",
        "1947": "candle</w>",
        "1948": "candles</w>",
        "1949": "candy</w>",
        "1950": "cane</w>",
        "1951": "cano",
        "1952": "canoe</w>",
        "1953": "canoes</w>",
        "1954": "canopy</w>",
        "1955": "cans</w>",
        "1956": "cant</w>",
        "1957": "cap",
        "1958": "cap</w>",
        "1959": "capped</w>",
        "1960": "caps</w>",
        "1961": "capti",
        "1962": "caption</w>",
        "1963": "captive</w>",
        "1964": "captivity</w>",
        "1965": "captured</w>",
        "1966": "car",
        "1967": "car</w>",
        "1968": "card</w>",
        "1969": "cardboard</w>",
        "1970": "cards</w>",
        "1971": "care",
        "1972": "care</w>",
        "1973": "carefully</w>",
        "1974": "cargo</w>",
        "1975": "carnival</w>",
        "1976": "carou",
        "1977": "carousel</w>",
        "1978": "carpe",
        "1979": "carpet</w>",
        "1980": "carpeted</w>",
        "1981": "carri",
        "1982": "carriage</w>",
        "1983": "carriages</w>",
        "1984": "carried</w>",
        "1985": "carrier</w>",
        "1986": "carries</w>",
        "1987": "carro",
        "1988": "carrot</w>",
        "1989": "carrots</w>",
        "1990": "carry</w>",
        "1991": "carrying</w>",
        "1992": "cars</w>",
        "1993": "cart</w>",
        "1994": "carto",
        "1995": "carton</w>",
        "1996": "cartoon</w>",
        "1997": "carts</w>",
        "1998": "carved</w>",
        "1999": "carving</w>",
        "2000": "case</w>",
        "2001": "cases</w>",
        "2002": "cass",
        "2003": "cassero",
        "2004": "casserole</w>",
        "2005": "cast</w>",
        "2006": "casting</w>",
        "2007": "castle</w>",
        "2008": "casual</w>",
        "2009": "cat",
        "2010": "cat</w>",
        "2011": "catch</w>",
        "2012": "catcher</w>",
        "2013": "catchers</w>",
        "2014": "catches</w>",
        "2015": "catching</w>",
        "2016": "cathedral</w>",
        "2017": "cats</w>",
        "2018": "cattle</w>",
        "2019": "cau",
        "2020": "caught</w>",
        "2021": "cauliflower</w>",
        "2022": "cause</w>",
        "2023": "caution</w>",
        "2024": "cave</w>",
        "2025": "cco",
        "2026": "ccoli</w>",
        "2027": "ce",
        "2028": "ce</w>",
        "2029": "ced</w>",
        "2030": "ceiling</w>",
        "2031": "cel",
        "2032": "celain</w>",
        "2033": "cele",
        "2034": "celebra",
        "2035": "celebrating</w>",
        "2036": "celebration</w>",
        "2037": "celery</w>",
        "2038": "cell",
        "2039": "cell</w>",
        "2040": "cellphone</w>",
        "2041": "cellphones</w>",
        "2042": "cellular</w>",
        "2043": "cem",
        "2044": "cement</w>",
        "2045": "cemetery</w>",
        "2046": "cen",
        "2047": "cent</w>",
        "2048": "center</w>",
        "2049": "cently</w>",
        "2050": "cents</w>",
        "2051": "cept</w>",
        "2052": "cer",
        "2053": "cer</w>",
        "2054": "cera",
        "2055": "ceramic</w>",
        "2056": "cereal</w>",
        "2057": "cerem",
        "2058": "ceremony</w>",
        "2059": "ceries</w>",
        "2060": "cers</w>",
        "2061": "cery</w>",
        "2062": "ces</w>",
        "2063": "cess",
        "2064": "ch",
        "2065": "ch</w>",
        "2066": "cha",
        "2067": "chain</w>",
        "2068": "chained</w>",
        "2069": "chains</w>",
        "2070": "chair</w>",
        "2071": "chairs</w>",
        "2072": "chal",
        "2073": "cham",
        "2074": "champagne</w>",
        "2075": "chan",
        "2076": "chandel",
        "2077": "chandelier</w>",
        "2078": "change</w>",
        "2079": "changing</w>",
        "2080": "channel</w>",
        "2081": "char",
        "2082": "charac",
        "2083": "character</w>",
        "2084": "characters</w>",
        "2085": "charger</w>",
        "2086": "charging</w>",
        "2087": "chase</w>",
        "2088": "chasing</w>",
        "2089": "che",
        "2090": "che</w>",
        "2091": "check",
        "2092": "check</w>",
        "2093": "checked</w>",
        "2094": "checkered</w>",
        "2095": "checking</w>",
        "2096": "checks</w>",
        "2097": "ched</w>",
        "2098": "chee",
        "2099": "cheese",
        "2100": "cheese</w>",
        "2101": "cheesecake</w>",
        "2102": "cheeses</w>",
        "2103": "cheesy</w>",
        "2104": "chef</w>",
        "2105": "chefs</w>",
        "2106": "chen</w>",
        "2107": "cher</w>",
        "2108": "cherries</w>",
        "2109": "cherry</w>",
        "2110": "chers</w>",
        "2111": "ches</w>",
        "2112": "chest</w>",
        "2113": "chet</w>",
        "2114": "chewing</w>",
        "2115": "chews</w>",
        "2116": "chi",
        "2117": "chic",
        "2118": "chicken</w>",
        "2119": "chickens</w>",
        "2120": "chil",
        "2121": "child</w>",
        "2122": "children</w>",
        "2123": "chili</w>",
        "2124": "chin</w>",
        "2125": "china</w>",
        "2126": "chinese</w>",
        "2127": "ching</w>",
        "2128": "chips</w>",
        "2129": "chment</w>",
        "2130": "cho",
        "2131": "chocolate</w>",
        "2132": "chool</w>",
        "2133": "chop",
        "2134": "chop</w>",
        "2135": "chopped</w>",
        "2136": "chopping</w>",
        "2137": "choppy</w>",
        "2138": "chopsticks</w>",
        "2139": "christmas</w>",
        "2140": "chro",
        "2141": "chrome</w>",
        "2142": "chu",
        "2143": "chun",
        "2144": "chup</w>",
        "2145": "church</w>",
        "2146": "ci",
        "2147": "cial</w>",
        "2148": "cident</w>",
        "2149": "cient</w>",
        "2150": "cig",
        "2151": "cigare",
        "2152": "cigarette</w>",
        "2153": "cin",
        "2154": "cing</w>",
        "2155": "cinnamon</w>",
        "2156": "cious</w>",
        "2157": "cir",
        "2158": "circle</w>",
        "2159": "circu",
        "2160": "circular</w>",
        "2161": "circus</w>",
        "2162": "cit",
        "2163": "citrus</w>",
        "2164": "city</w>",
        "2165": "cityscape</w>",
        "2166": "ck",
        "2167": "ck</w>",
        "2168": "cked</w>",
        "2169": "cker</w>",
        "2170": "ckered</w>",
        "2171": "ckers</w>",
        "2172": "cket</w>",
        "2173": "ckets</w>",
        "2174": "ckey</w>",
        "2175": "cking</w>",
        "2176": "ckled</w>",
        "2177": "cks</w>",
        "2178": "cktower</w>",
        "2179": "cky</w>",
        "2180": "cl",
        "2181": "cla",
        "2182": "clad</w>",
        "2183": "claim</w>",
        "2184": "class",
        "2185": "class</w>",
        "2186": "classic</w>",
        "2187": "classroom</w>",
        "2188": "claw</w>",
        "2189": "clay</w>",
        "2190": "cle",
        "2191": "cle</w>",
        "2192": "clean</w>",
        "2193": "cleaned</w>",
        "2194": "cleaning</w>",
        "2195": "clear</w>",
        "2196": "clearing</w>",
        "2197": "clearly</w>",
        "2198": "cles</w>",
        "2199": "cli",
        "2200": "cliff</w>",
        "2201": "climb",
        "2202": "climb</w>",
        "2203": "climbing</w>",
        "2204": "climbs</w>",
        "2205": "clo",
        "2206": "clock</w>",
        "2207": "clocks</w>",
        "2208": "clocktower</w>",
        "2209": "close</w>",
        "2210": "closed</w>",
        "2211": "closely</w>",
        "2212": "closet</w>",
        "2213": "closeup</w>",
        "2214": "cloth",
        "2215": "cloth</w>",
        "2216": "clothed</w>",
        "2217": "clothes</w>",
        "2218": "clothing</w>",
        "2219": "cloths</w>",
        "2220": "clou",
        "2221": "cloud</w>",
        "2222": "cloudless</w>",
        "2223": "clouds</w>",
        "2224": "cloudy</w>",
        "2225": "clown</w>",
        "2226": "clu",
        "2227": "club</w>",
        "2228": "cluster</w>",
        "2229": "clut",
        "2230": "clutter</w>",
        "2231": "cluttered</w>",
        "2232": "co",
        "2233": "co</w>",
        "2234": "coa",
        "2235": "coach</w>",
        "2236": "coal</w>",
        "2237": "coast</w>",
        "2238": "coaster</w>",
        "2239": "coat</w>",
        "2240": "coats</w>",
        "2241": "cobb",
        "2242": "cobble",
        "2243": "cobblestone</w>",
        "2244": "cock",
        "2245": "cock</w>",
        "2246": "cocon",
        "2247": "coffee</w>",
        "2248": "coin</w>",
        "2249": "coke</w>",
        "2250": "col",
        "2251": "cola</w>",
        "2252": "cold</w>",
        "2253": "cole</w>",
        "2254": "coleslaw</w>",
        "2255": "coll",
        "2256": "colla",
        "2257": "collage</w>",
        "2258": "collar</w>",
        "2259": "colle",
        "2260": "collection</w>",
        "2261": "college</w>",
        "2262": "colli</w>",
        "2263": "colo",
        "2264": "color",
        "2265": "color</w>",
        "2266": "colored</w>",
        "2267": "colorful</w>",
        "2268": "colorfully</w>",
        "2269": "colors</w>",
        "2270": "colum",
        "2271": "columns</w>",
        "2272": "com",
        "2273": "comb",
        "2274": "comb</w>",
        "2275": "combination</w>",
        "2276": "combing</w>",
        "2277": "come</w>",
        "2278": "comes</w>",
        "2279": "comfor",
        "2280": "comfortable</w>",
        "2281": "comfortably</w>",
        "2282": "comforter</w>",
        "2283": "coming</w>",
        "2284": "commercial</w>",
        "2285": "commode</w>",
        "2286": "commun",
        "2287": "commuter</w>",
        "2288": "como",
        "2289": "comotive</w>",
        "2290": "comp",
        "2291": "compact</w>",
        "2292": "compani",
        "2293": "company</w>",
        "2294": "compartment</w>",
        "2295": "compartments</w>",
        "2296": "compe",
        "2297": "compete</w>",
        "2298": "competing</w>",
        "2299": "competit",
        "2300": "competition</w>",
        "2301": "competitive</w>",
        "2302": "comple",
        "2303": "complete</w>",
        "2304": "completely</w>",
        "2305": "complex</w>",
        "2306": "compu",
        "2307": "computer</w>",
        "2308": "computers</w>",
        "2309": "con",
        "2310": "con</w>",
        "2311": "concen",
        "2312": "concentra",
        "2313": "concert</w>",
        "2314": "concrete</w>",
        "2315": "condi",
        "2316": "condiments</w>",
        "2317": "condu",
        "2318": "conductor</w>",
        "2319": "cone</w>",
        "2320": "cones</w>",
        "2321": "conference</w>",
        "2322": "confu",
        "2323": "congre",
        "2324": "conne",
        "2325": "connected</w>",
        "2326": "cons",
        "2327": "consi",
        "2328": "consisting</w>",
        "2329": "consists</w>",
        "2330": "conso",
        "2331": "console</w>",
        "2332": "constructed</w>",
        "2333": "construction</w>",
        "2334": "consum",
        "2335": "consumption</w>",
        "2336": "contact</w>",
        "2337": "contain",
        "2338": "container</w>",
        "2339": "containers</w>",
        "2340": "containing</w>",
        "2341": "contains</w>",
        "2342": "contem",
        "2343": "contemporary</w>",
        "2344": "contents</w>",
        "2345": "contest</w>",
        "2346": "contra",
        "2347": "contraption</w>",
        "2348": "contro",
        "2349": "control</w>",
        "2350": "controll",
        "2351": "controlled</w>",
        "2352": "controller</w>",
        "2353": "controllers</w>",
        "2354": "controls</w>",
        "2355": "conve",
        "2356": "conven",
        "2357": "convention</w>",
        "2358": "conver",
        "2359": "convers",
        "2360": "conversation</w>",
        "2361": "conversing</w>",
        "2362": "convey",
        "2363": "conveyor</w>",
        "2364": "coo",
        "2365": "cook",
        "2366": "cook</w>",
        "2367": "cooked</w>",
        "2368": "cooki",
        "2369": "cookie</w>",
        "2370": "cookies</w>",
        "2371": "cooking</w>",
        "2372": "cooks</w>",
        "2373": "cool",
        "2374": "cool</w>",
        "2375": "cooler</w>",
        "2376": "cooling</w>",
        "2377": "cop",
        "2378": "cop</w>",
        "2379": "cops</w>",
        "2380": "cor",
        "2381": "cora",
        "2382": "cord</w>",
        "2383": "cords</w>",
        "2384": "corn</w>",
        "2385": "corner</w>",
        "2386": "corral</w>",
        "2387": "costum",
        "2388": "costume</w>",
        "2389": "costumes</w>",
        "2390": "cot",
        "2391": "cou",
        "2392": "couch</w>",
        "2393": "couches</w>",
        "2394": "could</w>",
        "2395": "coun",
        "2396": "counter",
        "2397": "counter</w>",
        "2398": "counters</w>",
        "2399": "countertop</w>",
        "2400": "countertops</w>",
        "2401": "country</w>",
        "2402": "countryside</w>",
        "2403": "couple</w>",
        "2404": "cour",
        "2405": "course</w>",
        "2406": "court</w>",
        "2407": "courts</w>",
        "2408": "courtyard</w>",
        "2409": "cover",
        "2410": "cover</w>",
        "2411": "covered</w>",
        "2412": "covering</w>",
        "2413": "covers</w>",
        "2414": "cow",
        "2415": "cow</w>",
        "2416": "cowboy</w>",
        "2417": "cows</w>",
        "2418": "cozy</w>",
        "2419": "cra",
        "2420": "crab</w>",
        "2421": "cracked</w>",
        "2422": "crackers</w>",
        "2423": "craft</w>",
        "2424": "crafts</w>",
        "2425": "cramped</w>",
        "2426": "cran",
        "2427": "crane</w>",
        "2428": "cranes</w>",
        "2429": "crashing</w>",
        "2430": "crate</w>",
        "2431": "crates</w>",
        "2432": "crawling</w>",
        "2433": "cre",
        "2434": "crea",
        "2435": "cream</w>",
        "2436": "cree",
        "2437": "creek</w>",
        "2438": "creepy</w>",
        "2439": "crest</w>",
        "2440": "crete</w>",
        "2441": "crew</w>",
        "2442": "cri",
        "2443": "crib</w>",
        "2444": "cro",
        "2445": "croche",
        "2446": "crocheted</w>",
        "2447": "croiss",
        "2448": "croissant</w>",
        "2449": "cross",
        "2450": "cross</w>",
        "2451": "crossed</w>",
        "2452": "crosses</w>",
        "2453": "crossing</w>",
        "2454": "crosswalk</w>",
        "2455": "crou",
        "2456": "crouched</w>",
        "2457": "crouches</w>",
        "2458": "crouching</w>",
        "2459": "crow",
        "2460": "crow</w>",
        "2461": "crowd</w>",
        "2462": "crowded</w>",
        "2463": "crown</w>",
        "2464": "cru",
        "2465": "crui",
        "2466": "cruise</w>",
        "2467": "crust</w>",
        "2468": "cry",
        "2469": "crystal</w>",
        "2470": "cs</w>",
        "2471": "ct</w>",
        "2472": "cta",
        "2473": "cted</w>",
        "2474": "cti",
        "2475": "cting</w>",
        "2476": "ction</w>",
        "2477": "ctional</w>",
        "2478": "ctions</w>",
        "2479": "ctive</w>",
        "2480": "ctly</w>",
        "2481": "ctor</w>",
        "2482": "ctors</w>",
        "2483": "cts</w>",
        "2484": "ctu",
        "2485": "cu",
        "2486": "cub</w>",
        "2487": "cubic",
        "2488": "cubicle</w>",
        "2489": "cubs</w>",
        "2490": "cuc",
        "2491": "cucumber</w>",
        "2492": "cucumbers</w>",
        "2493": "cuddling</w>",
        "2494": "cup",
        "2495": "cup</w>",
        "2496": "cupboard</w>",
        "2497": "cupboards</w>",
        "2498": "cupcake</w>",
        "2499": "cupcakes</w>",
        "2500": "cups</w>",
        "2501": "cur",
        "2502": "curb</w>",
        "2503": "curi",
        "2504": "curious</w>",
        "2505": "curiously</w>",
        "2506": "curity</w>",
        "2507": "curled</w>",
        "2508": "curly</w>",
        "2509": "curren",
        "2510": "currently</w>",
        "2511": "curtain</w>",
        "2512": "curtains</w>",
        "2513": "curve</w>",
        "2514": "curved</w>",
        "2515": "curvy</w>",
        "2516": "cushi",
        "2517": "cushion</w>",
        "2518": "cushions</w>",
        "2519": "custo",
        "2520": "custom</w>",
        "2521": "customer</w>",
        "2522": "customers</w>",
        "2523": "cut</w>",
        "2524": "cute</w>",
        "2525": "cuts</w>",
        "2526": "cutter</w>",
        "2527": "cutting</w>",
        "2528": "cy",
        "2529": "cy</w>",
        "2530": "cyc",
        "2531": "cycle</w>",
        "2532": "cycles</w>",
        "2533": "cyclist</w>",
        "2534": "cyclists</w>",
        "2535": "d",
        "2536": "d</w>",
        "2537": "da",
        "2538": "da</w>",
        "2539": "dad</w>",
        "2540": "dai",
        "2541": "dairy</w>",
        "2542": "daisies</w>",
        "2543": "dal</w>",
        "2544": "dama",
        "2545": "damaged</w>",
        "2546": "dance</w>",
        "2547": "dancing</w>",
        "2548": "dang",
        "2549": "dant</w>",
        "2550": "dar",
        "2551": "dark",
        "2552": "dark</w>",
        "2553": "darkened</w>",
        "2554": "dashboard</w>",
        "2555": "dated</w>",
        "2556": "daugh",
        "2557": "daughter</w>",
        "2558": "day",
        "2559": "day</w>",
        "2560": "daylight</w>",
        "2561": "days</w>",
        "2562": "daytime</w>",
        "2563": "dboard</w>",
        "2564": "dd",
        "2565": "dded</w>",
        "2566": "dden</w>",
        "2567": "dding</w>",
        "2568": "ddle</w>",
        "2569": "ddled</w>",
        "2570": "ddles</w>",
        "2571": "ddling</w>",
        "2572": "ddy</w>",
        "2573": "de",
        "2574": "de</w>",
        "2575": "dead</w>",
        "2576": "debris</w>",
        "2577": "dec",
        "2578": "deck</w>",
        "2579": "decked</w>",
        "2580": "decker</w>",
        "2581": "deckered</w>",
        "2582": "decor</w>",
        "2583": "decora",
        "2584": "decorate</w>",
        "2585": "decorated</w>",
        "2586": "decorating</w>",
        "2587": "decoration</w>",
        "2588": "decorations</w>",
        "2589": "decorative</w>",
        "2590": "ded</w>",
        "2591": "deep</w>",
        "2592": "deer</w>",
        "2593": "defen",
        "2594": "del",
        "2595": "del</w>",
        "2596": "deli",
        "2597": "deli</w>",
        "2598": "delicious</w>",
        "2599": "delivering</w>",
        "2600": "delivery</w>",
        "2601": "demon",
        "2602": "demonstra",
        "2603": "den",
        "2604": "den</w>",
        "2605": "dense</w>",
        "2606": "dent</w>",
        "2607": "denti",
        "2608": "dential</w>",
        "2609": "deo</w>",
        "2610": "department</w>",
        "2611": "depic",
        "2612": "depicted</w>",
        "2613": "depicting</w>",
        "2614": "depicts</w>",
        "2615": "depot</w>",
        "2616": "der",
        "2617": "der</w>",
        "2618": "dered</w>",
        "2619": "dering</w>",
        "2620": "derly</w>",
        "2621": "derness</w>",
        "2622": "ders</w>",
        "2623": "des",
        "2624": "des</w>",
        "2625": "descen",
        "2626": "descending</w>",
        "2627": "descri",
        "2628": "describe</w>",
        "2629": "deser",
        "2630": "desert</w>",
        "2631": "deserted</w>",
        "2632": "deserts</w>",
        "2633": "design</w>",
        "2634": "designed</w>",
        "2635": "designs</w>",
        "2636": "desk",
        "2637": "desk</w>",
        "2638": "desks</w>",
        "2639": "desktop</w>",
        "2640": "dess",
        "2641": "dessert</w>",
        "2642": "desserts</w>",
        "2643": "dest",
        "2644": "destination</w>",
        "2645": "destro",
        "2646": "destroyed</w>",
        "2647": "det</w>",
        "2648": "deta",
        "2649": "dev",
        "2650": "device</w>",
        "2651": "devices</w>",
        "2652": "dge</w>",
        "2653": "dges</w>",
        "2654": "di",
        "2655": "dia",
        "2656": "dia</w>",
        "2657": "diamon",
        "2658": "diamond</w>",
        "2659": "dian</w>",
        "2660": "diaper</w>",
        "2661": "diator</w>",
        "2662": "dible</w>",
        "2663": "dic",
        "2664": "diced</w>",
        "2665": "die</w>",
        "2666": "dies</w>",
        "2667": "diff",
        "2668": "different</w>",
        "2669": "dig",
        "2670": "digging</w>",
        "2671": "digital</w>",
        "2672": "dilapidated</w>",
        "2673": "dim</w>",
        "2674": "dimly</w>",
        "2675": "din",
        "2676": "diner</w>",
        "2677": "ding</w>",
        "2678": "dings</w>",
        "2679": "dining</w>",
        "2680": "dinner</w>",
        "2681": "dinning</w>",
        "2682": "dio</w>",
        "2683": "dip</w>",
        "2684": "dipping</w>",
        "2685": "dire",
        "2686": "directing</w>",
        "2687": "direction</w>",
        "2688": "directional</w>",
        "2689": "directions</w>",
        "2690": "directly</w>",
        "2691": "dirt</w>",
        "2692": "dirty</w>",
        "2693": "dis",
        "2694": "disc",
        "2695": "disc</w>",
        "2696": "discu",
        "2697": "dish",
        "2698": "dish</w>",
        "2699": "dishes</w>",
        "2700": "dishwasher</w>",
        "2701": "disk</w>",
        "2702": "dispen",
        "2703": "dispenser</w>",
        "2704": "display",
        "2705": "display</w>",
        "2706": "displayed</w>",
        "2707": "displaying</w>",
        "2708": "displays</w>",
        "2709": "distance</w>",
        "2710": "distant</w>",
        "2711": "district</w>",
        "2712": "dit",
        "2713": "diti",
        "2714": "ditional</w>",
        "2715": "dium</w>",
        "2716": "divi",
        "2717": "divided</w>",
        "2718": "dividu",
        "2719": "diving</w>",
        "2720": "dle</w>",
        "2721": "dless</w>",
        "2722": "dly</w>",
        "2723": "do",
        "2724": "do</w>",
        "2725": "dock</w>",
        "2726": "docked</w>",
        "2727": "docking</w>",
        "2728": "docks</w>",
        "2729": "does",
        "2730": "does</w>",
        "2731": "doesn</w>",
        "2732": "dog</w>",
        "2733": "dogs</w>",
        "2734": "doing</w>",
        "2735": "doll",
        "2736": "doll</w>",
        "2737": "dolls</w>",
        "2738": "dom",
        "2739": "dom</w>",
        "2740": "dome</w>",
        "2741": "don",
        "2742": "don</w>",
        "2743": "done</w>",
        "2744": "doned</w>",
        "2745": "donkey</w>",
        "2746": "donut</w>",
        "2747": "donuts</w>",
        "2748": "door</w>",
        "2749": "doors</w>",
        "2750": "doorway</w>",
        "2751": "dor",
        "2752": "dor</w>",
        "2753": "dorm</w>",
        "2754": "dors</w>",
        "2755": "dos</w>",
        "2756": "dot</w>",
        "2757": "dots</w>",
        "2758": "dotted</w>",
        "2759": "dou",
        "2760": "double</w>",
        "2761": "doubles</w>",
        "2762": "dough",
        "2763": "dough</w>",
        "2764": "doughnut</w>",
        "2765": "doughnuts</w>",
        "2766": "dow</w>",
        "2767": "down",
        "2768": "down</w>",
        "2769": "downhill</w>",
        "2770": "downtown</w>",
        "2771": "downward</w>",
        "2772": "dozen</w>",
        "2773": "dozens</w>",
        "2774": "dr",
        "2775": "dra",
        "2776": "dragging</w>",
        "2777": "dragon</w>",
        "2778": "drail</w>",
        "2779": "drain</w>",
        "2780": "draped</w>",
        "2781": "drapes</w>",
        "2782": "drawer</w>",
        "2783": "drawers</w>",
        "2784": "drawing</w>",
        "2785": "drawn</w>",
        "2786": "dre",
        "2787": "dreds</w>",
        "2788": "dren</w>",
        "2789": "dress",
        "2790": "dress</w>",
        "2791": "dressed</w>",
        "2792": "dresser</w>",
        "2793": "dresses</w>",
        "2794": "dressing</w>",
        "2795": "dri",
        "2796": "dried</w>",
        "2797": "drin",
        "2798": "drink</w>",
        "2799": "drinking</w>",
        "2800": "drinks</w>",
        "2801": "drive",
        "2802": "drive</w>",
        "2803": "driven</w>",
        "2804": "driver</w>",
        "2805": "drivers</w>",
        "2806": "drives</w>",
        "2807": "driveway</w>",
        "2808": "driving</w>",
        "2809": "dro",
        "2810": "drop</w>",
        "2811": "dropping</w>",
        "2812": "dru",
        "2813": "dry</w>",
        "2814": "dryer</w>",
        "2815": "drying</w>",
        "2816": "ds</w>",
        "2817": "du",
        "2818": "dual</w>",
        "2819": "duck</w>",
        "2820": "ducks</w>",
        "2821": "dugout</w>",
        "2822": "dul",
        "2823": "dump",
        "2824": "dump</w>",
        "2825": "dun",
        "2826": "during</w>",
        "2827": "dusk</w>",
        "2828": "dust</w>",
        "2829": "dusty</w>",
        "2830": "dwalk</w>",
        "2831": "dy",
        "2832": "dy</w>",
        "2833": "e",
        "2834": "e</w>",
        "2835": "ea",
        "2836": "each</w>",
        "2837": "eagle</w>",
        "2838": "eal</w>",
        "2839": "ean</w>",
        "2840": "ear",
        "2841": "ear</w>",
        "2842": "early</w>",
        "2843": "ears</w>",
        "2844": "earth</w>",
        "2845": "easy</w>",
        "2846": "eat",
        "2847": "eat</w>",
        "2848": "eaten</w>",
        "2849": "eating</w>",
        "2850": "eats</w>",
        "2851": "eb",
        "2852": "ed",
        "2853": "ed</w>",
        "2854": "edge</w>",
        "2855": "eds</w>",
        "2856": "ee",
        "2857": "ee</w>",
        "2858": "eel</w>",
        "2859": "eep</w>",
        "2860": "ees</w>",
        "2861": "ef",
        "2862": "ef</w>",
        "2863": "eff",
        "2864": "eg",
        "2865": "egg</w>",
        "2866": "eggs</w>",
        "2867": "ei",
        "2868": "eight</w>",
        "2869": "eing</w>",
        "2870": "either</w>",
        "2871": "el",
        "2872": "el</w>",
        "2873": "elabo",
        "2874": "elaborate</w>",
        "2875": "eld</w>",
        "2876": "elderly</w>",
        "2877": "ele",
        "2878": "elec",
        "2879": "electri",
        "2880": "electric</w>",
        "2881": "electrical</w>",
        "2882": "electro",
        "2883": "electronic</w>",
        "2884": "electronics</w>",
        "2885": "eled</w>",
        "2886": "eleg",
        "2887": "elegant</w>",
        "2888": "elephant</w>",
        "2889": "elephants</w>",
        "2890": "eless</w>",
        "2891": "eleva",
        "2892": "elevated</w>",
        "2893": "elf</w>",
        "2894": "eling</w>",
        "2895": "ell</w>",
        "2896": "ella</w>",
        "2897": "elling</w>",
        "2898": "ellow</w>",
        "2899": "ells</w>",
        "2900": "els</w>",
        "2901": "else</w>",
        "2902": "ely</w>",
        "2903": "em",
        "2904": "emb",
        "2905": "embracing</w>",
        "2906": "emer",
        "2907": "emergency</w>",
        "2908": "emp",
        "2909": "employ",
        "2910": "empty</w>",
        "2911": "ems</w>",
        "2912": "en",
        "2913": "en</w>",
        "2914": "ena</w>",
        "2915": "ence</w>",
        "2916": "enclo",
        "2917": "enclosed</w>",
        "2918": "enclosure</w>",
        "2919": "end</w>",
        "2920": "ender</w>",
        "2921": "ends</w>",
        "2922": "ene</w>",
        "2923": "ened</w>",
        "2924": "eng",
        "2925": "enga",
        "2926": "engaged</w>",
        "2927": "engaging</w>",
        "2928": "engine</w>",
        "2929": "engines</w>",
        "2930": "enjo",
        "2931": "enjoy</w>",
        "2932": "enjoying</w>",
        "2933": "enjoys</w>",
        "2934": "enormous</w>",
        "2935": "enough</w>",
        "2936": "ens</w>",
        "2937": "ent",
        "2938": "ent</w>",
        "2939": "ental</w>",
        "2940": "enter",
        "2941": "enter</w>",
        "2942": "entering</w>",
        "2943": "entertain",
        "2944": "entertainment</w>",
        "2945": "enth",
        "2946": "enthusi",
        "2947": "enti",
        "2948": "ently</w>",
        "2949": "entral</w>",
        "2950": "entrance</w>",
        "2951": "entree</w>",
        "2952": "entry</w>",
        "2953": "ents</w>",
        "2954": "enty</w>",
        "2955": "envi",
        "2956": "environ",
        "2957": "environment</w>",
        "2958": "eo",
        "2959": "eo</w>",
        "2960": "eones</w>",
        "2961": "eons</w>",
        "2962": "eople</w>",
        "2963": "ep</w>",
        "2964": "equestri",
        "2965": "equestrian</w>",
        "2966": "equi",
        "2967": "equipment</w>",
        "2968": "equipped</w>",
        "2969": "er",
        "2970": "er</w>",
        "2971": "era",
        "2972": "era</w>",
        "2973": "erci",
        "2974": "ere",
        "2975": "ere</w>",
        "2976": "ered</w>",
        "2977": "eri",
        "2978": "erial</w>",
        "2979": "erials</w>",
        "2980": "ering</w>",
        "2981": "erman</w>",
        "2982": "ern</w>",
        "2983": "ero",
        "2984": "erries</w>",
        "2985": "erry</w>",
        "2986": "ers</w>",
        "2987": "ert</w>",
        "2988": "erts</w>",
        "2989": "ery</w>",
        "2990": "es",
        "2991": "es</w>",
        "2992": "esc",
        "2993": "escala",
        "2994": "escalator</w>",
        "2995": "ese</w>",
        "2996": "est</w>",
        "2997": "esta",
        "2998": "establi",
        "2999": "ests</w>",
        "3000": "et",
        "3001": "et</w>",
        "3002": "etball</w>",
        "3003": "etry</w>",
        "3004": "ets</w>",
        "3005": "ette</w>",
        "3006": "ety</w>",
        "3007": "eu",
        "3008": "ev",
        "3009": "even",
        "3010": "even</w>",
        "3011": "evening</w>",
        "3012": "event</w>",
        "3013": "ever",
        "3014": "evergreen</w>",
        "3015": "every",
        "3016": "everyone</w>",
        "3017": "everything</w>",
        "3018": "everywhere</w>",
        "3019": "ew</w>",
        "3020": "ex",
        "3021": "exam",
        "3022": "examines</w>",
        "3023": "examining</w>",
        "3024": "except</w>",
        "3025": "excit",
        "3026": "excited</w>",
        "3027": "exerci",
        "3028": "exhi",
        "3029": "exhibit</w>",
        "3030": "exit</w>",
        "3031": "exiting</w>",
        "3032": "exotic</w>",
        "3033": "expan",
        "3034": "expanse</w>",
        "3035": "exposed</w>",
        "3036": "expre",
        "3037": "expression</w>",
        "3038": "exten",
        "3039": "extended</w>",
        "3040": "extending</w>",
        "3041": "extends</w>",
        "3042": "exter",
        "3043": "exterior</w>",
        "3044": "extra</w>",
        "3045": "extre",
        "3046": "extremely</w>",
        "3047": "ey",
        "3048": "ey</w>",
        "3049": "eye",
        "3050": "eye</w>",
        "3051": "eyed</w>",
        "3052": "eyes</w>",
        "3053": "eys</w>",
        "3054": "f",
        "3055": "f</w>",
        "3056": "fa",
        "3057": "fabri",
        "3058": "fabric</w>",
        "3059": "fac",
        "3060": "face</w>",
        "3061": "faced</w>",
        "3062": "faces</w>",
        "3063": "facility</w>",
        "3064": "facing</w>",
        "3065": "factory</w>",
        "3066": "faded</w>",
        "3067": "fair",
        "3068": "fair</w>",
        "3069": "fairly</w>",
        "3070": "fake</w>",
        "3071": "fal",
        "3072": "fall</w>",
        "3073": "fallen</w>",
        "3074": "falling</w>",
        "3075": "falls</w>",
        "3076": "famil",
        "3077": "family</w>",
        "3078": "famous</w>",
        "3079": "fan",
        "3080": "fan</w>",
        "3081": "fancy</w>",
        "3082": "fans</w>",
        "3083": "fant</w>",
        "3084": "far",
        "3085": "far</w>",
        "3086": "farm",
        "3087": "farm</w>",
        "3088": "farmer</w>",
        "3089": "farmers</w>",
        "3090": "fashi",
        "3091": "fashion</w>",
        "3092": "fashioned</w>",
        "3093": "fast</w>",
        "3094": "fat</w>",
        "3095": "father</w>",
        "3096": "fauc",
        "3097": "faucet</w>",
        "3098": "fe",
        "3099": "fe</w>",
        "3100": "feat",
        "3101": "feath",
        "3102": "feathers</w>",
        "3103": "featured</w>",
        "3104": "features</w>",
        "3105": "featuring</w>",
        "3106": "fed</w>",
        "3107": "fedo",
        "3108": "fedora</w>",
        "3109": "fee",
        "3110": "feed</w>",
        "3111": "feeder</w>",
        "3112": "feeding</w>",
        "3113": "feeds</w>",
        "3114": "feet</w>",
        "3115": "fell</w>",
        "3116": "fem",
        "3117": "female</w>",
        "3118": "females</w>",
        "3119": "fen",
        "3120": "fence</w>",
        "3121": "fenced</w>",
        "3122": "fences</w>",
        "3123": "fencing</w>",
        "3124": "fer",
        "3125": "ference</w>",
        "3126": "ferry</w>",
        "3127": "fessi",
        "3128": "festi",
        "3129": "festival</w>",
        "3130": "feter",
        "3131": "feteria</w>",
        "3132": "few</w>",
        "3133": "ff",
        "3134": "ff</w>",
        "3135": "ffed</w>",
        "3136": "ffee</w>",
        "3137": "ffel</w>",
        "3138": "ffer",
        "3139": "fferent</w>",
        "3140": "ffle</w>",
        "3141": "ffs</w>",
        "3142": "ffy</w>",
        "3143": "fi",
        "3144": "fici",
        "3145": "ficial</w>",
        "3146": "fie</w>",
        "3147": "fied</w>",
        "3148": "fiel",
        "3149": "field</w>",
        "3150": "fields</w>",
        "3151": "fig",
        "3152": "figh",
        "3153": "fight</w>",
        "3154": "fighter</w>",
        "3155": "fighters</w>",
        "3156": "fighting</w>",
        "3157": "figu",
        "3158": "figure</w>",
        "3159": "figures</w>",
        "3160": "figurine</w>",
        "3161": "figurines</w>",
        "3162": "fil",
        "3163": "file</w>",
        "3164": "filed</w>",
        "3165": "fill</w>",
        "3166": "filled</w>",
        "3167": "filling</w>",
        "3168": "film</w>",
        "3169": "filthy</w>",
        "3170": "fin",
        "3171": "find</w>",
        "3172": "fine</w>",
        "3173": "finger</w>",
        "3174": "fingers</w>",
        "3175": "fini",
        "3176": "finish</w>",
        "3177": "finished</w>",
        "3178": "finishing</w>",
        "3179": "fir",
        "3180": "fire",
        "3181": "fire</w>",
        "3182": "fireplace</w>",
        "3183": "firetruck</w>",
        "3184": "first</w>",
        "3185": "fish",
        "3186": "fish</w>",
        "3187": "fishing</w>",
        "3188": "fist</w>",
        "3189": "fit",
        "3190": "fit</w>",
        "3191": "five</w>",
        "3192": "fix",
        "3193": "fix</w>",
        "3194": "fixing</w>",
        "3195": "fixture</w>",
        "3196": "fixtures</w>",
        "3197": "fl",
        "3198": "fla",
        "3199": "flag</w>",
        "3200": "flags</w>",
        "3201": "flamin",
        "3202": "flamingos</w>",
        "3203": "flan",
        "3204": "flat",
        "3205": "flat</w>",
        "3206": "flatbed</w>",
        "3207": "flav",
        "3208": "flavored</w>",
        "3209": "flavors</w>",
        "3210": "fle",
        "3211": "fleet</w>",
        "3212": "fli",
        "3213": "flies</w>",
        "3214": "flight</w>",
        "3215": "flip</w>",
        "3216": "flipping</w>",
        "3217": "flips</w>",
        "3218": "flo",
        "3219": "float</w>",
        "3220": "floating</w>",
        "3221": "floats</w>",
        "3222": "flock</w>",
        "3223": "floo",
        "3224": "flooded</w>",
        "3225": "floor</w>",
        "3226": "flooring</w>",
        "3227": "floors</w>",
        "3228": "floral</w>",
        "3229": "flore",
        "3230": "florets</w>",
        "3231": "flow",
        "3232": "flower</w>",
        "3233": "flowered</w>",
        "3234": "flowering</w>",
        "3235": "flowers</w>",
        "3236": "flowery</w>",
        "3237": "flowing</w>",
        "3238": "flown</w>",
        "3239": "flu",
        "3240": "fluffy</w>",
        "3241": "fly</w>",
        "3242": "flying</w>",
        "3243": "fo",
        "3244": "foal</w>",
        "3245": "foam</w>",
        "3246": "focu",
        "3247": "focus</w>",
        "3248": "focused</w>",
        "3249": "fog</w>",
        "3250": "foggy</w>",
        "3251": "foil</w>",
        "3252": "fol",
        "3253": "folded</w>",
        "3254": "folding</w>",
        "3255": "foli",
        "3256": "foliage</w>",
        "3257": "follo",
        "3258": "followed</w>",
        "3259": "following</w>",
        "3260": "follows</w>",
        "3261": "fon",
        "3262": "foo",
        "3263": "food</w>",
        "3264": "foods</w>",
        "3265": "foot",
        "3266": "foot</w>",
        "3267": "football</w>",
        "3268": "for",
        "3269": "for</w>",
        "3270": "foraging</w>",
        "3271": "force</w>",
        "3272": "fore",
        "3273": "fore</w>",
        "3274": "foreground</w>",
        "3275": "foreign</w>",
        "3276": "forest</w>",
        "3277": "forested</w>",
        "3278": "fork</w>",
        "3279": "forks</w>",
        "3280": "form",
        "3281": "form</w>",
        "3282": "formal</w>",
        "3283": "formally</w>",
        "3284": "formation</w>",
        "3285": "formed</w>",
        "3286": "forming</w>",
        "3287": "forms</w>",
        "3288": "fornia</w>",
        "3289": "forward</w>",
        "3290": "fou",
        "3291": "found</w>",
        "3292": "fountain</w>",
        "3293": "four</w>",
        "3294": "fr",
        "3295": "fra",
        "3296": "frame</w>",
        "3297": "framed</w>",
        "3298": "frames</w>",
        "3299": "fre",
        "3300": "free",
        "3301": "free</w>",
        "3302": "freeway</w>",
        "3303": "freezer</w>",
        "3304": "freight</w>",
        "3305": "french</w>",
        "3306": "fresh</w>",
        "3307": "freshly</w>",
        "3308": "fri",
        "3309": "fridge</w>",
        "3310": "fried</w>",
        "3311": "friend</w>",
        "3312": "friends</w>",
        "3313": "fries</w>",
        "3314": "fris",
        "3315": "frisbe</w>",
        "3316": "frisbee</w>",
        "3317": "frisbees</w>",
        "3318": "friz",
        "3319": "frizbee</w>",
        "3320": "fro",
        "3321": "frog</w>",
        "3322": "from</w>",
        "3323": "fron",
        "3324": "front</w>",
        "3325": "fronts</w>",
        "3326": "frosted</w>",
        "3327": "frosting</w>",
        "3328": "frozen</w>",
        "3329": "fru",
        "3330": "fruit</w>",
        "3331": "fruits</w>",
        "3332": "fry</w>",
        "3333": "frying</w>",
        "3334": "fs</w>",
        "3335": "ft</w>",
        "3336": "fting</w>",
        "3337": "fto",
        "3338": "fts</w>",
        "3339": "fu",
        "3340": "fu</w>",
        "3341": "ful</w>",
        "3342": "full</w>",
        "3343": "fully</w>",
        "3344": "fun",
        "3345": "fun</w>",
        "3346": "funny</w>",
        "3347": "fur",
        "3348": "fur</w>",
        "3349": "furni",
        "3350": "furnished</w>",
        "3351": "furnishings</w>",
        "3352": "furniture</w>",
        "3353": "furry</w>",
        "3354": "futon</w>",
        "3355": "fuzzy</w>",
        "3356": "fy</w>",
        "3357": "g",
        "3358": "g</w>",
        "3359": "ga",
        "3360": "gad",
        "3361": "gadgets</w>",
        "3362": "gain",
        "3363": "gal",
        "3364": "gallo",
        "3365": "galloping</w>",
        "3366": "game</w>",
        "3367": "games</w>",
        "3368": "gaming</w>",
        "3369": "gan",
        "3370": "gang</w>",
        "3371": "gar",
        "3372": "gar</w>",
        "3373": "garage</w>",
        "3374": "garb</w>",
        "3375": "garbage</w>",
        "3376": "garden</w>",
        "3377": "garlic</w>",
        "3378": "garni",
        "3379": "garnish</w>",
        "3380": "garnished</w>",
        "3381": "gas</w>",
        "3382": "gate</w>",
        "3383": "gated</w>",
        "3384": "gates</w>",
        "3385": "gath",
        "3386": "gather</w>",
        "3387": "gathered</w>",
        "3388": "gathering</w>",
        "3389": "gating</w>",
        "3390": "gaz",
        "3391": "gazel",
        "3392": "gazelle</w>",
        "3393": "gazing</w>",
        "3394": "ge",
        "3395": "ge</w>",
        "3396": "gear</w>",
        "3397": "ged</w>",
        "3398": "geese</w>",
        "3399": "gel</w>",
        "3400": "gels</w>",
        "3401": "gen",
        "3402": "gen</w>",
        "3403": "gency</w>",
        "3404": "gener",
        "3405": "gent",
        "3406": "gentle",
        "3407": "gentle</w>",
        "3408": "gentleman</w>",
        "3409": "gentlemen</w>",
        "3410": "geon</w>",
        "3411": "ger",
        "3412": "ger</w>",
        "3413": "gera",
        "3414": "gerator</w>",
        "3415": "gers</w>",
        "3416": "ges</w>",
        "3417": "gest",
        "3418": "get</w>",
        "3419": "gets</w>",
        "3420": "getting</w>",
        "3421": "gg",
        "3422": "gga",
        "3423": "ggage</w>",
        "3424": "gged</w>",
        "3425": "gger</w>",
        "3426": "ggi",
        "3427": "gging</w>",
        "3428": "ggles</w>",
        "3429": "ggy</w>",
        "3430": "gh",
        "3431": "gh</w>",
        "3432": "ghet",
        "3433": "ghetti</w>",
        "3434": "ght",
        "3435": "ght</w>",
        "3436": "ghtly</w>",
        "3437": "ghts</w>",
        "3438": "gi",
        "3439": "giant</w>",
        "3440": "gie</w>",
        "3441": "gift</w>",
        "3442": "gin",
        "3443": "gin</w>",
        "3444": "ging</w>",
        "3445": "gir",
        "3446": "giraff",
        "3447": "giraffe</w>",
        "3448": "giraffes</w>",
        "3449": "girl</w>",
        "3450": "girls</w>",
        "3451": "give</w>",
        "3452": "gives</w>",
        "3453": "giving</w>",
        "3454": "gla",
        "3455": "glass</w>",
        "3456": "glasses</w>",
        "3457": "glazed</w>",
        "3458": "gle</w>",
        "3459": "gli",
        "3460": "glider</w>",
        "3461": "glides</w>",
        "3462": "gliding</w>",
        "3463": "glo",
        "3464": "glove</w>",
        "3465": "gloves</w>",
        "3466": "glow</w>",
        "3467": "glowing</w>",
        "3468": "gly</w>",
        "3469": "gn",
        "3470": "gnant</w>",
        "3471": "go",
        "3472": "go</w>",
        "3473": "goal</w>",
        "3474": "goalie</w>",
        "3475": "goat</w>",
        "3476": "goats</w>",
        "3477": "goers</w>",
        "3478": "goes</w>",
        "3479": "goggles</w>",
        "3480": "going</w>",
        "3481": "gol",
        "3482": "gold</w>",
        "3483": "golden</w>",
        "3484": "golf</w>",
        "3485": "gon",
        "3486": "gon</w>",
        "3487": "gonal</w>",
        "3488": "gone</w>",
        "3489": "good</w>",
        "3490": "goods</w>",
        "3491": "goof",
        "3492": "goose</w>",
        "3493": "gos</w>",
        "3494": "got</w>",
        "3495": "gourmet</w>",
        "3496": "gout</w>",
        "3497": "gown</w>",
        "3498": "gr",
        "3499": "gra",
        "3500": "grab</w>",
        "3501": "grabbing</w>",
        "3502": "grabs</w>",
        "3503": "gradu",
        "3504": "graff",
        "3505": "graffiti</w>",
        "3506": "grain</w>",
        "3507": "gram</w>",
        "3508": "gran",
        "3509": "grand",
        "3510": "grand</w>",
        "3511": "grandfather</w>",
        "3512": "granite</w>",
        "3513": "grap",
        "3514": "grape",
        "3515": "grapefruit</w>",
        "3516": "grapes</w>",
        "3517": "graph",
        "3518": "graph</w>",
        "3519": "grass",
        "3520": "grass</w>",
        "3521": "grasses</w>",
        "3522": "grassland</w>",
        "3523": "grassy</w>",
        "3524": "gratu",
        "3525": "gravel</w>",
        "3526": "gravy</w>",
        "3527": "gray</w>",
        "3528": "graz",
        "3529": "graze</w>",
        "3530": "grazes</w>",
        "3531": "grazing</w>",
        "3532": "gre",
        "3533": "great</w>",
        "3534": "gredi",
        "3535": "gredients</w>",
        "3536": "gree",
        "3537": "green",
        "3538": "green</w>",
        "3539": "greenery</w>",
        "3540": "greens</w>",
        "3541": "greeting</w>",
        "3542": "grey</w>",
        "3543": "gri",
        "3544": "grill</w>",
        "3545": "grilled</w>",
        "3546": "grilling</w>",
        "3547": "grin",
        "3548": "grinding</w>",
        "3549": "grinds</w>",
        "3550": "grizzly</w>",
        "3551": "gro",
        "3552": "grocery</w>",
        "3553": "groom",
        "3554": "groom</w>",
        "3555": "groomed</w>",
        "3556": "grooming</w>",
        "3557": "grou",
        "3558": "groun",
        "3559": "ground</w>",
        "3560": "group</w>",
        "3561": "grouped</w>",
        "3562": "grouping</w>",
        "3563": "groups</w>",
        "3564": "grove</w>",
        "3565": "growing</w>",
        "3566": "grown</w>",
        "3567": "gry</w>",
        "3568": "gs</w>",
        "3569": "gst</w>",
        "3570": "gu",
        "3571": "guard</w>",
        "3572": "gue</w>",
        "3573": "guests</w>",
        "3574": "gui",
        "3575": "guide</w>",
        "3576": "guiding</w>",
        "3577": "guit",
        "3578": "guitar</w>",
        "3579": "gular</w>",
        "3580": "gulls</w>",
        "3581": "gun",
        "3582": "gun</w>",
        "3583": "gus</w>",
        "3584": "guy</w>",
        "3585": "guys</w>",
        "3586": "gy",
        "3587": "gy</w>",
        "3588": "gym</w>",
        "3589": "h",
        "3590": "h</w>",
        "3591": "ha",
        "3592": "ha</w>",
        "3593": "habit",
        "3594": "habitat</w>",
        "3595": "had</w>",
        "3596": "hair",
        "3597": "hair</w>",
        "3598": "haircut</w>",
        "3599": "haired</w>",
        "3600": "hairy</w>",
        "3601": "hal",
        "3602": "half",
        "3603": "half</w>",
        "3604": "halfway</w>",
        "3605": "hall",
        "3606": "hall</w>",
        "3607": "hallway</w>",
        "3608": "halt</w>",
        "3609": "halves</w>",
        "3610": "ham",
        "3611": "ham</w>",
        "3612": "hambur",
        "3613": "hamburger</w>",
        "3614": "hamburgers</w>",
        "3615": "hammer</w>",
        "3616": "hammock</w>",
        "3617": "han",
        "3618": "hand",
        "3619": "hand</w>",
        "3620": "handbag</w>",
        "3621": "handed</w>",
        "3622": "handicap</w>",
        "3623": "handicapped</w>",
        "3624": "handing</w>",
        "3625": "handle",
        "3626": "handle</w>",
        "3627": "handled</w>",
        "3628": "handles</w>",
        "3629": "hands</w>",
        "3630": "hang</w>",
        "3631": "hangar</w>",
        "3632": "hanger</w>",
        "3633": "hanging</w>",
        "3634": "hangs</w>",
        "3635": "happ",
        "3636": "happily</w>",
        "3637": "happy</w>",
        "3638": "har",
        "3639": "harbor</w>",
        "3640": "hard",
        "3641": "hard</w>",
        "3642": "hardwood</w>",
        "3643": "harness</w>",
        "3644": "has</w>",
        "3645": "hat",
        "3646": "hat</w>",
        "3647": "hats</w>",
        "3648": "hau",
        "3649": "haul",
        "3650": "hauling</w>",
        "3651": "have</w>",
        "3652": "having</w>",
        "3653": "haw",
        "3654": "hawk</w>",
        "3655": "hay</w>",
        "3656": "hazy</w>",
        "3657": "he",
        "3658": "he</w>",
        "3659": "hea",
        "3660": "head",
        "3661": "head</w>",
        "3662": "headboard</w>",
        "3663": "headed</w>",
        "3664": "heading</w>",
        "3665": "headlights</w>",
        "3666": "headphones</w>",
        "3667": "heads</w>",
        "3668": "heal",
        "3669": "healthy</w>",
        "3670": "hear",
        "3671": "heard</w>",
        "3672": "heart</w>",
        "3673": "heat",
        "3674": "heater</w>",
        "3675": "heavily</w>",
        "3676": "heavy</w>",
        "3677": "hedge</w>",
        "3678": "heels</w>",
        "3679": "hel",
        "3680": "held</w>",
        "3681": "heli",
        "3682": "helicop",
        "3683": "helicopter</w>",
        "3684": "helme",
        "3685": "helmet</w>",
        "3686": "helmets</w>",
        "3687": "help</w>",
        "3688": "helping</w>",
        "3689": "helps</w>",
        "3690": "her",
        "3691": "her</w>",
        "3692": "herbs</w>",
        "3693": "herd</w>",
        "3694": "herded</w>",
        "3695": "herding</w>",
        "3696": "here</w>",
        "3697": "herself</w>",
        "3698": "hi",
        "3699": "hic",
        "3700": "hidden</w>",
        "3701": "hides</w>",
        "3702": "hiding</w>",
        "3703": "high",
        "3704": "high</w>",
        "3705": "highway</w>",
        "3706": "hiking</w>",
        "3707": "hil",
        "3708": "hill",
        "3709": "hill</w>",
        "3710": "hills</w>",
        "3711": "hillside</w>",
        "3712": "hilly</w>",
        "3713": "him</w>",
        "3714": "himself</w>",
        "3715": "hin",
        "3716": "hind</w>",
        "3717": "hip",
        "3718": "hipster</w>",
        "3719": "his</w>",
        "3720": "histori",
        "3721": "historic</w>",
        "3722": "historical</w>",
        "3723": "hit",
        "3724": "hit</w>",
        "3725": "hits</w>",
        "3726": "hitter</w>",
        "3727": "hitting</w>",
        "3728": "ho",
        "3729": "hoagie</w>",
        "3730": "hockey</w>",
        "3731": "hol",
        "3732": "hol</w>",
        "3733": "hold</w>",
        "3734": "holder</w>",
        "3735": "holders</w>",
        "3736": "holding</w>",
        "3737": "holds</w>",
        "3738": "hole</w>",
        "3739": "holes</w>",
        "3740": "holi",
        "3741": "holiday</w>",
        "3742": "hom",
        "3743": "home",
        "3744": "home</w>",
        "3745": "homemade</w>",
        "3746": "homes</w>",
        "3747": "honey</w>",
        "3748": "hoo",
        "3749": "hood</w>",
        "3750": "hooded</w>",
        "3751": "hoodie</w>",
        "3752": "hook</w>",
        "3753": "hooked</w>",
        "3754": "hooks</w>",
        "3755": "hoop</w>",
        "3756": "hor",
        "3757": "horiz",
        "3758": "horizon</w>",
        "3759": "horn</w>",
        "3760": "horned</w>",
        "3761": "horns</w>",
        "3762": "horse",
        "3763": "horse</w>",
        "3764": "horseback</w>",
        "3765": "horses</w>",
        "3766": "hose</w>",
        "3767": "hospital</w>",
        "3768": "hot",
        "3769": "hot</w>",
        "3770": "hotdog</w>",
        "3771": "hotdogs</w>",
        "3772": "hotel</w>",
        "3773": "hou",
        "3774": "house",
        "3775": "house</w>",
        "3776": "household</w>",
        "3777": "houses</w>",
        "3778": "housing</w>",
        "3779": "hovering</w>",
        "3780": "hovers</w>",
        "3781": "how</w>",
        "3782": "hu",
        "3783": "huahua</w>",
        "3784": "huddle</w>",
        "3785": "huddled</w>",
        "3786": "hug</w>",
        "3787": "huge</w>",
        "3788": "hugging</w>",
        "3789": "hum",
        "3790": "human</w>",
        "3791": "humming",
        "3792": "hummingbird</w>",
        "3793": "hun",
        "3794": "hunched</w>",
        "3795": "hundreds</w>",
        "3796": "hung</w>",
        "3797": "hur",
        "3798": "husky</w>",
        "3799": "hut</w>",
        "3800": "hy",
        "3801": "hyd",
        "3802": "hydran",
        "3803": "hydrant</w>",
        "3804": "hydrants</w>",
        "3805": "i",
        "3806": "i</w>",
        "3807": "iP",
        "3808": "iPhone</w>",
        "3809": "ia</w>",
        "3810": "ial</w>",
        "3811": "ian</w>",
        "3812": "ic",
        "3813": "ic</w>",
        "3814": "ica",
        "3815": "ica</w>",
        "3816": "ical</w>",
        "3817": "ically</w>",
        "3818": "ican</w>",
        "3819": "icans</w>",
        "3820": "ice",
        "3821": "ice</w>",
        "3822": "iced</w>",
        "3823": "ices</w>",
        "3824": "ici",
        "3825": "icing</w>",
        "3826": "icious</w>",
        "3827": "ick",
        "3828": "icking</w>",
        "3829": "ickly</w>",
        "3830": "ico</w>",
        "3831": "ics</w>",
        "3832": "ictori",
        "3833": "icy</w>",
        "3834": "icyc",
        "3835": "id",
        "3836": "id</w>",
        "3837": "ident",
        "3838": "identical</w>",
        "3839": "idle</w>",
        "3840": "idly</w>",
        "3841": "ids</w>",
        "3842": "ie</w>",
        "3843": "ier</w>",
        "3844": "iers</w>",
        "3845": "ies</w>",
        "3846": "if</w>",
        "3847": "ig",
        "3848": "igh",
        "3849": "igh</w>",
        "3850": "ight</w>",
        "3851": "ights</w>",
        "3852": "ign</w>",
        "3853": "igns</w>",
        "3854": "il",
        "3855": "il</w>",
        "3856": "ile</w>",
        "3857": "iled</w>",
        "3858": "iling</w>",
        "3859": "ility</w>",
        "3860": "ill</w>",
        "3861": "illa</w>",
        "3862": "illu",
        "3863": "illumin",
        "3864": "illuminated</w>",
        "3865": "ils</w>",
        "3866": "ily</w>",
        "3867": "im",
        "3868": "im</w>",
        "3869": "ima",
        "3870": "image</w>",
        "3871": "images</w>",
        "3872": "impor",
        "3873": "important</w>",
        "3874": "in",
        "3875": "in</w>",
        "3876": "ina</w>",
        "3877": "ination</w>",
        "3878": "inc",
        "3879": "incline</w>",
        "3880": "inclu",
        "3881": "include</w>",
        "3882": "includes</w>",
        "3883": "including</w>",
        "3884": "incoming</w>",
        "3885": "ind</w>",
        "3886": "indic",
        "3887": "indicates</w>",
        "3888": "indicating</w>",
        "3889": "individu",
        "3890": "individual</w>",
        "3891": "individuals</w>",
        "3892": "indoor</w>",
        "3893": "indoors</w>",
        "3894": "indu",
        "3895": "industrial</w>",
        "3896": "ine",
        "3897": "ine</w>",
        "3898": "ined</w>",
        "3899": "iner</w>",
        "3900": "inery</w>",
        "3901": "ines</w>",
        "3902": "inese</w>",
        "3903": "infant</w>",
        "3904": "infla",
        "3905": "inflatable</w>",
        "3906": "information</w>",
        "3907": "ing",
        "3908": "ing</w>",
        "3909": "ingly</w>",
        "3910": "ingredients</w>",
        "3911": "ings</w>",
        "3912": "ington</w>",
        "3913": "ini</w>",
        "3914": "ining</w>",
        "3915": "inju",
        "3916": "ink</w>",
        "3917": "inner</w>",
        "3918": "inning</w>",
        "3919": "ins</w>",
        "3920": "inside</w>",
        "3921": "inspe",
        "3922": "inspecting</w>",
        "3923": "instal",
        "3924": "installed</w>",
        "3925": "instead</w>",
        "3926": "instru",
        "3927": "instruc",
        "3928": "instructions</w>",
        "3929": "instructor</w>",
        "3930": "instrument</w>",
        "3931": "instruments</w>",
        "3932": "int</w>",
        "3933": "inten",
        "3934": "intenance</w>",
        "3935": "intently</w>",
        "3936": "inter",
        "3937": "intera",
        "3938": "interacting</w>",
        "3939": "interactive</w>",
        "3940": "intere",
        "3941": "interesting</w>",
        "3942": "interior</w>",
        "3943": "intersection</w>",
        "3944": "into</w>",
        "3945": "intri",
        "3946": "intricat",
        "3947": "intricate</w>",
        "3948": "inve",
        "3949": "investi",
        "3950": "iny</w>",
        "3951": "ion",
        "3952": "ion</w>",
        "3953": "ioned</w>",
        "3954": "ions</w>",
        "3955": "ior</w>",
        "3956": "ious</w>",
        "3957": "ip",
        "3958": "ipod</w>",
        "3959": "ir",
        "3960": "ir</w>",
        "3961": "ird</w>",
        "3962": "ire</w>",
        "3963": "ired</w>",
        "3964": "irgin</w>",
        "3965": "iro",
        "3966": "iron</w>",
        "3967": "irt</w>",
        "3968": "irty</w>",
        "3969": "is",
        "3970": "is</w>",
        "3971": "ise</w>",
        "3972": "ised</w>",
        "3973": "island</w>",
        "3974": "isle</w>",
        "3975": "iss",
        "3976": "it",
        "3977": "it</w>",
        "3978": "ital</w>",
        "3979": "itary</w>",
        "3980": "ite",
        "3981": "ite</w>",
        "3982": "itec",
        "3983": "item</w>",
        "3984": "items</w>",
        "3985": "iti",
        "3986": "iti</w>",
        "3987": "ities</w>",
        "3988": "iting</w>",
        "3989": "itish</w>",
        "3990": "its</w>",
        "3991": "itself</w>",
        "3992": "itting</w>",
        "3993": "ittle</w>",
        "3994": "ity</w>",
        "3995": "ive</w>",
        "3996": "j",
        "3997": "ja",
        "3998": "jacket</w>",
        "3999": "jackets</w>",
        "4000": "jam",
        "4001": "jam</w>",
        "4002": "jar</w>",
        "4003": "jars</w>",
        "4004": "je",
        "4005": "jeans</w>",
        "4006": "jeep</w>",
        "4007": "jel",
        "4008": "jelly</w>",
        "4009": "jer",
        "4010": "jerse",
        "4011": "jersey</w>",
        "4012": "jet",
        "4013": "jet</w>",
        "4014": "jetliner</w>",
        "4015": "jets</w>",
        "4016": "jewel",
        "4017": "jo",
        "4018": "job</w>",
        "4019": "jock",
        "4020": "jockey</w>",
        "4021": "jockeys</w>",
        "4022": "jor</w>",
        "4023": "ju",
        "4024": "jug</w>",
        "4025": "juice</w>",
        "4026": "jum",
        "4027": "jumbo</w>",
        "4028": "jump</w>",
        "4029": "jumped</w>",
        "4030": "jumping</w>",
        "4031": "jumps</w>",
        "4032": "jun",
        "4033": "jungle</w>",
        "4034": "junk</w>",
        "4035": "just</w>",
        "4036": "k",
        "4037": "k</w>",
        "4038": "ka",
        "4039": "ka</w>",
        "4040": "kaya",
        "4041": "kayak</w>",
        "4042": "ke",
        "4043": "ke</w>",
        "4044": "ked</w>",
        "4045": "kee",
        "4046": "keep</w>",
        "4047": "ken</w>",
        "4048": "kens</w>",
        "4049": "kept</w>",
        "4050": "ker</w>",
        "4051": "kers</w>",
        "4052": "kery</w>",
        "4053": "kes</w>",
        "4054": "ket",
        "4055": "ket</w>",
        "4056": "ketchup</w>",
        "4057": "ketplace</w>",
        "4058": "kets</w>",
        "4059": "kettle</w>",
        "4060": "key",
        "4061": "key</w>",
        "4062": "keyboard</w>",
        "4063": "keyboards</w>",
        "4064": "keys</w>",
        "4065": "kfast</w>",
        "4066": "ki",
        "4067": "ki</w>",
        "4068": "kic",
        "4069": "kick</w>",
        "4070": "kicking</w>",
        "4071": "kicks</w>",
        "4072": "kid</w>",
        "4073": "kids</w>",
        "4074": "kin",
        "4075": "kin</w>",
        "4076": "kind</w>",
        "4077": "kinds</w>",
        "4078": "king</w>",
        "4079": "kins</w>",
        "4080": "kiss</w>",
        "4081": "kissing</w>",
        "4082": "kit",
        "4083": "kit</w>",
        "4084": "kitch",
        "4085": "kitchen</w>",
        "4086": "kite",
        "4087": "kite</w>",
        "4088": "kiteboarding</w>",
        "4089": "kites</w>",
        "4090": "kits</w>",
        "4091": "kitten</w>",
        "4092": "kittens</w>",
        "4093": "kitty</w>",
        "4094": "kiwi",
        "4095": "kiwi</w>",
        "4096": "kn",
        "4097": "knacks</w>",
        "4098": "kne",
        "4099": "knee</w>",
        "4100": "kneeling</w>",
        "4101": "kneels</w>",
        "4102": "knees</w>",
        "4103": "kni",
        "4104": "knick</w>",
        "4105": "knife</w>",
        "4106": "knit",
        "4107": "knit</w>",
        "4108": "knitted</w>",
        "4109": "knives</w>",
        "4110": "kno",
        "4111": "knocked</w>",
        "4112": "know</w>",
        "4113": "known</w>",
        "4114": "kra",
        "4115": "kraut</w>",
        "4116": "ks</w>",
        "4117": "ky</w>",
        "4118": "l",
        "4119": "l</w>",
        "4120": "la",
        "4121": "la</w>",
        "4122": "lab",
        "4123": "lab</w>",
        "4124": "label</w>",
        "4125": "labeled</w>",
        "4126": "labo",
        "4127": "lace</w>",
        "4128": "lack</w>",
        "4129": "lad",
        "4130": "ladder</w>",
        "4131": "laden</w>",
        "4132": "ladies</w>",
        "4133": "lady</w>",
        "4134": "lage</w>",
        "4135": "laid</w>",
        "4136": "lain</w>",
        "4137": "lake</w>",
        "4138": "lam",
        "4139": "lamb</w>",
        "4140": "lambs</w>",
        "4141": "lamp",
        "4142": "lamp</w>",
        "4143": "lamppost</w>",
        "4144": "lamps</w>",
        "4145": "lan",
        "4146": "lance</w>",
        "4147": "land",
        "4148": "land</w>",
        "4149": "landed</w>",
        "4150": "landing</w>",
        "4151": "lands</w>",
        "4152": "landsca",
        "4153": "landscape</w>",
        "4154": "lane</w>",
        "4155": "lanes</w>",
        "4156": "language</w>",
        "4157": "languages</w>",
        "4158": "lanter",
        "4159": "lap",
        "4160": "lap</w>",
        "4161": "lapidated</w>",
        "4162": "laps</w>",
        "4163": "lapse</w>",
        "4164": "laptop</w>",
        "4165": "laptops</w>",
        "4166": "lar",
        "4167": "lar</w>",
        "4168": "large</w>",
        "4169": "larger</w>",
        "4170": "lars</w>",
        "4171": "las</w>",
        "4172": "late</w>",
        "4173": "lated</w>",
        "4174": "lator</w>",
        "4175": "laugh",
        "4176": "laugh</w>",
        "4177": "laughing</w>",
        "4178": "laughs</w>",
        "4179": "laun",
        "4180": "laundry</w>",
        "4181": "lawn</w>",
        "4182": "lay",
        "4183": "lay</w>",
        "4184": "layed</w>",
        "4185": "layer</w>",
        "4186": "layered</w>",
        "4187": "laying</w>",
        "4188": "lays</w>",
        "4189": "ld</w>",
        "4190": "le",
        "4191": "le</w>",
        "4192": "lea",
        "4193": "lead</w>",
        "4194": "leading</w>",
        "4195": "leads</w>",
        "4196": "leaf</w>",
        "4197": "leafy</w>",
        "4198": "league</w>",
        "4199": "lean</w>",
        "4200": "leaned</w>",
        "4201": "leaning</w>",
        "4202": "leans</w>",
        "4203": "leap</w>",
        "4204": "leaping</w>",
        "4205": "leaps</w>",
        "4206": "lear",
        "4207": "learning</w>",
        "4208": "leash</w>",
        "4209": "leashes</w>",
        "4210": "leather</w>",
        "4211": "leave</w>",
        "4212": "leaves</w>",
        "4213": "leaving</w>",
        "4214": "led</w>",
        "4215": "ledge</w>",
        "4216": "lee",
        "4217": "left</w>",
        "4218": "lefto",
        "4219": "leg</w>",
        "4220": "legged</w>",
        "4221": "lego</w>",
        "4222": "legs</w>",
        "4223": "lemon",
        "4224": "lemon</w>",
        "4225": "lemons</w>",
        "4226": "len</w>",
        "4227": "leng",
        "4228": "length</w>",
        "4229": "lens</w>",
        "4230": "leo",
        "4231": "leopard</w>",
        "4232": "ler</w>",
        "4233": "lers</w>",
        "4234": "les</w>",
        "4235": "leslaw</w>",
        "4236": "less</w>",
        "4237": "let",
        "4238": "let</w>",
        "4239": "letic</w>",
        "4240": "lets</w>",
        "4241": "letter</w>",
        "4242": "lettering</w>",
        "4243": "letters</w>",
        "4244": "letting</w>",
        "4245": "lettuce</w>",
        "4246": "level",
        "4247": "level</w>",
        "4248": "levels</w>",
        "4249": "ley</w>",
        "4250": "li",
        "4251": "li</w>",
        "4252": "library</w>",
        "4253": "lic",
        "4254": "lic</w>",
        "4255": "licking</w>",
        "4256": "licks</w>",
        "4257": "lid</w>",
        "4258": "lie</w>",
        "4259": "lies</w>",
        "4260": "lif",
        "4261": "life",
        "4262": "life</w>",
        "4263": "liflower</w>",
        "4264": "lift</w>",
        "4265": "lifted</w>",
        "4266": "lifting</w>",
        "4267": "lifts</w>",
        "4268": "ligh",
        "4269": "light</w>",
        "4270": "lighted</w>",
        "4271": "lighthouse</w>",
        "4272": "lighting</w>",
        "4273": "lightly</w>",
        "4274": "lights</w>",
        "4275": "like</w>",
        "4276": "lim",
        "4277": "limb</w>",
        "4278": "lime</w>",
        "4279": "limes</w>",
        "4280": "limit</w>",
        "4281": "lin",
        "4282": "line</w>",
        "4283": "lined</w>",
        "4284": "linen</w>",
        "4285": "linens</w>",
        "4286": "liner</w>",
        "4287": "liners</w>",
        "4288": "lines</w>",
        "4289": "ling</w>",
        "4290": "lings</w>",
        "4291": "lining</w>",
        "4292": "link</w>",
        "4293": "lion</w>",
        "4294": "lip</w>",
        "4295": "lips</w>",
        "4296": "liqu",
        "4297": "liquid</w>",
        "4298": "liquor</w>",
        "4299": "lish</w>",
        "4300": "lished</w>",
        "4301": "list</w>",
        "4302": "listening</w>",
        "4303": "lists</w>",
        "4304": "lit",
        "4305": "lit</w>",
        "4306": "lite</w>",
        "4307": "litter</w>",
        "4308": "littered</w>",
        "4309": "little</w>",
        "4310": "live</w>",
        "4311": "livestock</w>",
        "4312": "living</w>",
        "4313": "ll",
        "4314": "ll</w>",
        "4315": "lla",
        "4316": "lla</w>",
        "4317": "llas</w>",
        "4318": "lled</w>",
        "4319": "lley</w>",
        "4320": "lling</w>",
        "4321": "lls</w>",
        "4322": "lly</w>",
        "4323": "lo",
        "4324": "lo</w>",
        "4325": "loa",
        "4326": "load</w>",
        "4327": "loaded</w>",
        "4328": "loading</w>",
        "4329": "loaf</w>",
        "4330": "lobby</w>",
        "4331": "local</w>",
        "4332": "locat",
        "4333": "located</w>",
        "4334": "location</w>",
        "4335": "locked</w>",
        "4336": "locomotive</w>",
        "4337": "lodge</w>",
        "4338": "loft</w>",
        "4339": "log</w>",
        "4340": "logo</w>",
        "4341": "logs</w>",
        "4342": "lon",
        "4343": "lone</w>",
        "4344": "lonely</w>",
        "4345": "long",
        "4346": "long</w>",
        "4347": "loo",
        "4348": "look</w>",
        "4349": "looked</w>",
        "4350": "looking</w>",
        "4351": "looks</w>",
        "4352": "lor</w>",
        "4353": "lors</w>",
        "4354": "lot</w>",
        "4355": "lots</w>",
        "4356": "loun",
        "4357": "lounge</w>",
        "4358": "lounges</w>",
        "4359": "lounging</w>",
        "4360": "love</w>",
        "4361": "lovely</w>",
        "4362": "low",
        "4363": "low</w>",
        "4364": "lower</w>",
        "4365": "lows</w>",
        "4366": "loy",
        "4367": "lp",
        "4368": "ls</w>",
        "4369": "lu",
        "4370": "lue</w>",
        "4371": "luggage</w>",
        "4372": "lular</w>",
        "4373": "lum",
        "4374": "lun",
        "4375": "lunch</w>",
        "4376": "lunging</w>",
        "4377": "lush</w>",
        "4378": "lux",
        "4379": "ly",
        "4380": "ly</w>",
        "4381": "lying</w>",
        "4382": "m",
        "4383": "m</w>",
        "4384": "ma",
        "4385": "ma</w>",
        "4386": "mac</w>",
        "4387": "macar",
        "4388": "macaroni</w>",
        "4389": "mach",
        "4390": "machine</w>",
        "4391": "machinery</w>",
        "4392": "machines</w>",
        "4393": "made</w>",
        "4394": "mag",
        "4395": "magazine</w>",
        "4396": "magazines</w>",
        "4397": "magnets</w>",
        "4398": "mail</w>",
        "4399": "main",
        "4400": "main</w>",
        "4401": "major</w>",
        "4402": "make",
        "4403": "make</w>",
        "4404": "maker</w>",
        "4405": "makes</w>",
        "4406": "makeshift</w>",
        "4407": "makeup</w>",
        "4408": "making</w>",
        "4409": "mal",
        "4410": "mal</w>",
        "4411": "male</w>",
        "4412": "males</w>",
        "4413": "mall</w>",
        "4414": "mama</w>",
        "4415": "man",
        "4416": "man</w>",
        "4417": "maneu",
        "4418": "mannequ",
        "4419": "mannequin</w>",
        "4420": "mans</w>",
        "4421": "mantle</w>",
        "4422": "manu",
        "4423": "many</w>",
        "4424": "map</w>",
        "4425": "mar",
        "4426": "marble</w>",
        "4427": "marching</w>",
        "4428": "marina</w>",
        "4429": "marine</w>",
        "4430": "mark",
        "4431": "mark</w>",
        "4432": "marked</w>",
        "4433": "marker</w>",
        "4434": "markers</w>",
        "4435": "market</w>",
        "4436": "marketplace</w>",
        "4437": "markings</w>",
        "4438": "marks</w>",
        "4439": "maroon</w>",
        "4440": "married</w>",
        "4441": "mas</w>",
        "4442": "mascot</w>",
        "4443": "mashed</w>",
        "4444": "mask</w>",
        "4445": "mass</w>",
        "4446": "massive</w>",
        "4447": "master</w>",
        "4448": "mat",
        "4449": "mat</w>",
        "4450": "match</w>",
        "4451": "matching</w>",
        "4452": "mate</w>",
        "4453": "material</w>",
        "4454": "materials</w>",
        "4455": "mates</w>",
        "4456": "matic</w>",
        "4457": "mattre",
        "4458": "mattress</w>",
        "4459": "may",
        "4460": "may</w>",
        "4461": "mb",
        "4462": "mb</w>",
        "4463": "mbled</w>",
        "4464": "mbo",
        "4465": "mbs</w>",
        "4466": "me",
        "4467": "me</w>",
        "4468": "mea",
        "4469": "meado",
        "4470": "meadow</w>",
        "4471": "meal</w>",
        "4472": "meals</w>",
        "4473": "mean</w>",
        "4474": "measuring</w>",
        "4475": "meat",
        "4476": "meat</w>",
        "4477": "meats</w>",
        "4478": "mechan",
        "4479": "med</w>",
        "4480": "medi",
        "4481": "median</w>",
        "4482": "medic",
        "4483": "medical</w>",
        "4484": "medicine</w>",
        "4485": "medium</w>",
        "4486": "mee",
        "4487": "meet</w>",
        "4488": "meeting</w>",
        "4489": "mel",
        "4490": "mel</w>",
        "4491": "melon</w>",
        "4492": "melted</w>",
        "4493": "mely</w>",
        "4494": "memb",
        "4495": "members</w>",
        "4496": "memo",
        "4497": "men",
        "4498": "men</w>",
        "4499": "ment</w>",
        "4500": "ments</w>",
        "4501": "menu</w>",
        "4502": "mer",
        "4503": "mer</w>",
        "4504": "mercial</w>",
        "4505": "merged</w>",
        "4506": "mes</w>",
        "4507": "mesh</w>",
        "4508": "mess",
        "4509": "mess</w>",
        "4510": "message</w>",
        "4511": "messy</w>",
        "4512": "met",
        "4513": "met</w>",
        "4514": "metal</w>",
        "4515": "metallic</w>",
        "4516": "meter</w>",
        "4517": "meters</w>",
        "4518": "metery</w>",
        "4519": "metro",
        "4520": "metro</w>",
        "4521": "metropolitan</w>",
        "4522": "mi",
        "4523": "mi</w>",
        "4524": "mic",
        "4525": "mic</w>",
        "4526": "mice</w>",
        "4527": "micro",
        "4528": "microphone</w>",
        "4529": "microwave</w>",
        "4530": "microwaves</w>",
        "4531": "mid",
        "4532": "mid</w>",
        "4533": "midair</w>",
        "4534": "middle</w>",
        "4535": "midst</w>",
        "4536": "might</w>",
        "4537": "mil",
        "4538": "military</w>",
        "4539": "milk</w>",
        "4540": "milking</w>",
        "4541": "mill</w>",
        "4542": "milling</w>",
        "4543": "min",
        "4544": "ming",
        "4545": "ming</w>",
        "4546": "mini",
        "4547": "mini</w>",
        "4548": "miniature</w>",
        "4549": "mir",
        "4550": "mirro",
        "4551": "mirror</w>",
        "4552": "mirrored</w>",
        "4553": "mirrors</w>",
        "4554": "missing</w>",
        "4555": "mit",
        "4556": "mit</w>",
        "4557": "mitt</w>",
        "4558": "mix",
        "4559": "mix</w>",
        "4560": "mixed</w>",
        "4561": "mixer</w>",
        "4562": "mixing</w>",
        "4563": "mixture</w>",
        "4564": "mly</w>",
        "4565": "mm",
        "4566": "mmed</w>",
        "4567": "mmer</w>",
        "4568": "mming</w>",
        "4569": "mo",
        "4570": "mo</w>",
        "4571": "mobil",
        "4572": "mobile</w>",
        "4573": "mobiles</w>",
        "4574": "mock</w>",
        "4575": "mod",
        "4576": "mode</w>",
        "4577": "model</w>",
        "4578": "moder",
        "4579": "modern</w>",
        "4580": "modi",
        "4581": "mom",
        "4582": "mom</w>",
        "4583": "moment</w>",
        "4584": "mon",
        "4585": "mon</w>",
        "4586": "money</w>",
        "4587": "moni",
        "4588": "monitor</w>",
        "4589": "monitors</w>",
        "4590": "monkey</w>",
        "4591": "mono",
        "4592": "monster</w>",
        "4593": "monument</w>",
        "4594": "moon</w>",
        "4595": "moored</w>",
        "4596": "moped</w>",
        "4597": "mopeds</w>",
        "4598": "mor",
        "4599": "more</w>",
        "4600": "morning</w>",
        "4601": "mosa",
        "4602": "mosaic</w>",
        "4603": "most</w>",
        "4604": "mostly</w>",
        "4605": "mote</w>",
        "4606": "motel</w>",
        "4607": "motes</w>",
        "4608": "mother</w>",
        "4609": "moti",
        "4610": "motion</w>",
        "4611": "moto",
        "4612": "motor",
        "4613": "motor</w>",
        "4614": "motorbike</w>",
        "4615": "motorbikes</w>",
        "4616": "motorboat</w>",
        "4617": "motorcy",
        "4618": "motorcyc",
        "4619": "motorcycle</w>",
        "4620": "motorcycles</w>",
        "4621": "motorcyclist</w>",
        "4622": "motorcyclists</w>",
        "4623": "motori",
        "4624": "motorized</w>",
        "4625": "mou",
        "4626": "moun",
        "4627": "mound</w>",
        "4628": "mount</w>",
        "4629": "mounta",
        "4630": "mountain",
        "4631": "mountain</w>",
        "4632": "mountainous</w>",
        "4633": "mountains</w>",
        "4634": "mountainside</w>",
        "4635": "mounted</w>",
        "4636": "mous</w>",
        "4637": "mouse</w>",
        "4638": "mouth</w>",
        "4639": "mouths</w>",
        "4640": "move</w>",
        "4641": "moves</w>",
        "4642": "movi",
        "4643": "movie</w>",
        "4644": "moving</w>",
        "4645": "mozzarella</w>",
        "4646": "mp",
        "4647": "mp</w>",
        "4648": "mped</w>",
        "4649": "mple</w>",
        "4650": "mpled</w>",
        "4651": "mps</w>",
        "4652": "ms</w>",
        "4653": "mself</w>",
        "4654": "mu",
        "4655": "much</w>",
        "4656": "mud</w>",
        "4657": "muddy</w>",
        "4658": "muff",
        "4659": "muffin</w>",
        "4660": "muffins</w>",
        "4661": "mug</w>",
        "4662": "mugs</w>",
        "4663": "mul",
        "4664": "multi",
        "4665": "multi</w>",
        "4666": "multicolored</w>",
        "4667": "multiple</w>",
        "4668": "mun",
        "4669": "mur",
        "4670": "mural</w>",
        "4671": "museum</w>",
        "4672": "mush",
        "4673": "mushroom</w>",
        "4674": "mushrooms</w>",
        "4675": "musi",
        "4676": "music</w>",
        "4677": "musical</w>",
        "4678": "must</w>",
        "4679": "mustache</w>",
        "4680": "mustard</w>",
        "4681": "my</w>",
        "4682": "n",
        "4683": "n</w>",
        "4684": "na",
        "4685": "na</w>",
        "4686": "nacks</w>",
        "4687": "nah</w>",
        "4688": "naked</w>",
        "4689": "nam",
        "4690": "name</w>",
        "4691": "named</w>",
        "4692": "nament</w>",
        "4693": "names</w>",
        "4694": "namon</w>",
        "4695": "nap",
        "4696": "nap</w>",
        "4697": "napkin</w>",
        "4698": "napkins</w>",
        "4699": "napping</w>",
        "4700": "narrow</w>",
        "4701": "nasty</w>",
        "4702": "nat",
        "4703": "nati",
        "4704": "national</w>",
        "4705": "natural</w>",
        "4706": "nature</w>",
        "4707": "navi",
        "4708": "navy</w>",
        "4709": "nch</w>",
        "4710": "ne",
        "4711": "ne</w>",
        "4712": "near",
        "4713": "near</w>",
        "4714": "nearby</w>",
        "4715": "nearly</w>",
        "4716": "neat",
        "4717": "neat</w>",
        "4718": "neath</w>",
        "4719": "neatly</w>",
        "4720": "neck",
        "4721": "neck</w>",
        "4722": "necklace</w>",
        "4723": "necks</w>",
        "4724": "necktie</w>",
        "4725": "ned</w>",
        "4726": "nee",
        "4727": "need</w>",
        "4728": "needle</w>",
        "4729": "needs</w>",
        "4730": "neigh",
        "4731": "neighborhood</w>",
        "4732": "nel</w>",
        "4733": "neon</w>",
        "4734": "nequ",
        "4735": "ner",
        "4736": "ner</w>",
        "4737": "ners</w>",
        "4738": "nes</w>",
        "4739": "ness</w>",
        "4740": "nest",
        "4741": "nest</w>",
        "4742": "nestled</w>",
        "4743": "net</w>",
        "4744": "nets</w>",
        "4745": "neut",
        "4746": "neutral</w>",
        "4747": "new",
        "4748": "new</w>",
        "4749": "newly</w>",
        "4750": "news",
        "4751": "news</w>",
        "4752": "newspaper</w>",
        "4753": "next</w>",
        "4754": "ney</w>",
        "4755": "ng</w>",
        "4756": "ni",
        "4757": "nia</w>",
        "4758": "nic",
        "4759": "nic</w>",
        "4760": "nice</w>",
        "4761": "nicely</w>",
        "4762": "nics</w>",
        "4763": "nif",
        "4764": "night",
        "4765": "night</w>",
        "4766": "nightstand</w>",
        "4767": "nighttime</w>",
        "4768": "nine</w>",
        "4769": "ning</w>",
        "4770": "nintendo</w>",
        "4771": "nis</w>",
        "4772": "nit",
        "4773": "niture</w>",
        "4774": "no",
        "4775": "no</w>",
        "4776": "non</w>",
        "4777": "noodle</w>",
        "4778": "noodles</w>",
        "4779": "noon</w>",
        "4780": "nor",
        "4781": "nose</w>",
        "4782": "noses</w>",
        "4783": "not</w>",
        "4784": "note",
        "4785": "note</w>",
        "4786": "notebook</w>",
        "4787": "notes</w>",
        "4788": "nothing</w>",
        "4789": "now",
        "4790": "now</w>",
        "4791": "ns</w>",
        "4792": "nt</w>",
        "4793": "nu",
        "4794": "numb",
        "4795": "number</w>",
        "4796": "numbers</w>",
        "4797": "numer",
        "4798": "numeral</w>",
        "4799": "numerals</w>",
        "4800": "numerous</w>",
        "4801": "nur",
        "4802": "nursing</w>",
        "4803": "nut</w>",
        "4804": "nuts</w>",
        "4805": "nuzz",
        "4806": "nuzzling</w>",
        "4807": "ny</w>",
        "4808": "o",
        "4809": "o</w>",
        "4810": "oak</w>",
        "4811": "ob",
        "4812": "obje",
        "4813": "object</w>",
        "4814": "objects</w>",
        "4815": "observing</w>",
        "4816": "obsta",
        "4817": "obstacle</w>",
        "4818": "oc",
        "4819": "occu",
        "4820": "occupied</w>",
        "4821": "ocean</w>",
        "4822": "octo",
        "4823": "octopus</w>",
        "4824": "od",
        "4825": "od</w>",
        "4826": "odd</w>",
        "4827": "oddly</w>",
        "4828": "oded</w>",
        "4829": "odle</w>",
        "4830": "ods</w>",
        "4831": "of",
        "4832": "of</w>",
        "4833": "ofa</w>",
        "4834": "off",
        "4835": "off</w>",
        "4836": "offer",
        "4837": "offic",
        "4838": "office</w>",
        "4839": "officer</w>",
        "4840": "officers</w>",
        "4841": "official</w>",
        "4842": "og",
        "4843": "og</w>",
        "4844": "oil</w>",
        "4845": "ok</w>",
        "4846": "oked</w>",
        "4847": "oks</w>",
        "4848": "ol",
        "4849": "ol</w>",
        "4850": "old</w>",
        "4851": "older</w>",
        "4852": "oli",
        "4853": "olive</w>",
        "4854": "olives</w>",
        "4855": "ols</w>",
        "4856": "om",
        "4857": "om</w>",
        "4858": "oman</w>",
        "4859": "omas</w>",
        "4860": "ome",
        "4861": "ome</w>",
        "4862": "omelet</w>",
        "4863": "oming</w>",
        "4864": "oms</w>",
        "4865": "omy</w>",
        "4866": "on",
        "4867": "on</w>",
        "4868": "onal</w>",
        "4869": "oncoming</w>",
        "4870": "one</w>",
        "4871": "oned</w>",
        "4872": "ones</w>",
        "4873": "ong",
        "4874": "ong</w>",
        "4875": "oni</w>",
        "4876": "oning</w>",
        "4877": "onion</w>",
        "4878": "onions</w>",
        "4879": "onloo",
        "4880": "onlookers</w>",
        "4881": "only</w>",
        "4882": "ons</w>",
        "4883": "onto</w>",
        "4884": "ony</w>",
        "4885": "oo</w>",
        "4886": "oon</w>",
        "4887": "op",
        "4888": "open",
        "4889": "open</w>",
        "4890": "opened</w>",
        "4891": "opening</w>",
        "4892": "opens</w>",
        "4893": "oper",
        "4894": "operating</w>",
        "4895": "oping</w>",
        "4896": "opp",
        "4897": "oppon",
        "4898": "opponent</w>",
        "4899": "opposing</w>",
        "4900": "opposite</w>",
        "4901": "opy</w>",
        "4902": "or",
        "4903": "or</w>",
        "4904": "ora",
        "4905": "oran",
        "4906": "orange</w>",
        "4907": "oranges</w>",
        "4908": "order</w>",
        "4909": "ordin",
        "4910": "ore",
        "4911": "ored</w>",
        "4912": "org",
        "4913": "organi",
        "4914": "organized</w>",
        "4915": "ori",
        "4916": "oriental</w>",
        "4917": "ories</w>",
        "4918": "oring</w>",
        "4919": "ork</w>",
        "4920": "orn",
        "4921": "ornam",
        "4922": "ornament</w>",
        "4923": "ornamental</w>",
        "4924": "ornaments</w>",
        "4925": "ornate</w>",
        "4926": "ors</w>",
        "4927": "orway</w>",
        "4928": "os</w>",
        "4929": "ose</w>",
        "4930": "ostri",
        "4931": "ostrich</w>",
        "4932": "ot",
        "4933": "ot</w>",
        "4934": "oth",
        "4935": "other",
        "4936": "other</w>",
        "4937": "others</w>",
        "4938": "otherwise</w>",
        "4939": "otic</w>",
        "4940": "otto",
        "4941": "ottoman</w>",
        "4942": "ou",
        "4943": "ough</w>",
        "4944": "oul",
        "4945": "ould</w>",
        "4946": "oun",
        "4947": "ound</w>",
        "4948": "oung</w>",
        "4949": "ountain</w>",
        "4950": "our",
        "4951": "our</w>",
        "4952": "ouri",
        "4953": "ourmet</w>",
        "4954": "ous</w>",
        "4955": "ouse</w>",
        "4956": "ously</w>",
        "4957": "out",
        "4958": "out</w>",
        "4959": "outdoor</w>",
        "4960": "outdoors</w>",
        "4961": "outf",
        "4962": "outfield</w>",
        "4963": "outfit</w>",
        "4964": "outfits</w>",
        "4965": "outside</w>",
        "4966": "outstretched</w>",
        "4967": "oval</w>",
        "4968": "oven</w>",
        "4969": "ovens</w>",
        "4970": "over",
        "4971": "over</w>",
        "4972": "overcast</w>",
        "4973": "overgrown</w>",
        "4974": "overhead</w>",
        "4975": "overlooking</w>",
        "4976": "overlooks</w>",
        "4977": "overpass</w>",
        "4978": "overturned</w>",
        "4979": "ow",
        "4980": "owl</w>",
        "4981": "own</w>",
        "4982": "owner</w>",
        "4983": "owners</w>",
        "4984": "ox",
        "4985": "ox</w>",
        "4986": "oxen</w>",
        "4987": "p",
        "4988": "p</w>",
        "4989": "pa",
        "4990": "pack",
        "4991": "pack</w>",
        "4992": "package</w>",
        "4993": "packaged</w>",
        "4994": "packages</w>",
        "4995": "packed</w>",
        "4996": "packing</w>",
        "4997": "packs</w>",
        "4998": "pact</w>",
        "4999": "pad",
        "5000": "pad</w>",
        "5001": "paddle</w>",
        "5002": "paddles</w>",
        "5003": "paddling</w>",
        "5004": "paddock</w>",
        "5005": "pads</w>",
        "5006": "pag",
        "5007": "page</w>",
        "5008": "pagne</w>",
        "5009": "pain",
        "5010": "paint</w>",
        "5011": "painted</w>",
        "5012": "painting</w>",
        "5013": "paintings</w>",
        "5014": "pair</w>",
        "5015": "pairs</w>",
        "5016": "pajam",
        "5017": "pajamas</w>",
        "5018": "pal",
        "5019": "pale</w>",
        "5020": "palm</w>",
        "5021": "pan",
        "5022": "pan</w>",
        "5023": "pancakes</w>",
        "5024": "panda</w>",
        "5025": "pane</w>",
        "5026": "panel</w>",
        "5027": "paneled</w>",
        "5028": "panora",
        "5029": "pans</w>",
        "5030": "pantry</w>",
        "5031": "pants</w>",
        "5032": "paper",
        "5033": "paper</w>",
        "5034": "papers</w>",
        "5035": "paperwork</w>",
        "5036": "par",
        "5037": "para",
        "5038": "para</w>",
        "5039": "parach",
        "5040": "parachute</w>",
        "5041": "parade</w>",
        "5042": "paragus</w>",
        "5043": "parallel</w>",
        "5044": "paras",
        "5045": "parasail</w>",
        "5046": "parasailing</w>",
        "5047": "parasol</w>",
        "5048": "pard</w>",
        "5049": "parent</w>",
        "5050": "parents</w>",
        "5051": "park</w>",
        "5052": "parked</w>",
        "5053": "parking</w>",
        "5054": "parro",
        "5055": "parrot</w>",
        "5056": "parrots</w>",
        "5057": "part",
        "5058": "part</w>",
        "5059": "parti",
        "5060": "partial</w>",
        "5061": "partially</w>",
        "5062": "particip",
        "5063": "partly</w>",
        "5064": "partment</w>",
        "5065": "partments</w>",
        "5066": "parts</w>",
        "5067": "party</w>",
        "5068": "pass",
        "5069": "pass</w>",
        "5070": "passed</w>",
        "5071": "passenger</w>",
        "5072": "passengers</w>",
        "5073": "passes</w>",
        "5074": "passing</w>",
        "5075": "past",
        "5076": "past</w>",
        "5077": "pasta</w>",
        "5078": "paste</w>",
        "5079": "pastries</w>",
        "5080": "pastry</w>",
        "5081": "pasture</w>",
        "5082": "pat",
        "5083": "patch</w>",
        "5084": "path",
        "5085": "path</w>",
        "5086": "pathway</w>",
        "5087": "pati",
        "5088": "patiently</w>",
        "5089": "patio</w>",
        "5090": "patri",
        "5091": "patriotic</w>",
        "5092": "patro",
        "5093": "patrons</w>",
        "5094": "patter",
        "5095": "pattern</w>",
        "5096": "patterned</w>",
        "5097": "pauses</w>",
        "5098": "paved</w>",
        "5099": "pavement</w>",
        "5100": "paw</w>",
        "5101": "paws</w>",
        "5102": "pay</w>",
        "5103": "pe",
        "5104": "pe</w>",
        "5105": "pea",
        "5106": "peace",
        "5107": "peace</w>",
        "5108": "peacefully</w>",
        "5109": "peach</w>",
        "5110": "peaches</w>",
        "5111": "peacock</w>",
        "5112": "peak</w>",
        "5113": "peaking</w>",
        "5114": "pean",
        "5115": "peanut</w>",
        "5116": "pears</w>",
        "5117": "peas</w>",
        "5118": "ped</w>",
        "5119": "pede",
        "5120": "pedestal</w>",
        "5121": "pedestri",
        "5122": "pedestrian</w>",
        "5123": "pedestrians</w>",
        "5124": "pee",
        "5125": "peeking</w>",
        "5126": "peeks</w>",
        "5127": "peel</w>",
        "5128": "peeled</w>",
        "5129": "peeling</w>",
        "5130": "peering</w>",
        "5131": "peers</w>",
        "5132": "pel",
        "5133": "pen",
        "5134": "pen</w>",
        "5135": "pencil</w>",
        "5136": "pencils</w>",
        "5137": "pengu",
        "5138": "penguin</w>",
        "5139": "pens</w>",
        "5140": "peo",
        "5141": "people</w>",
        "5142": "pep",
        "5143": "pepper",
        "5144": "pepper</w>",
        "5145": "pepperoni</w>",
        "5146": "peppers</w>",
        "5147": "per",
        "5148": "per</w>",
        "5149": "perch</w>",
        "5150": "perched</w>",
        "5151": "perches</w>",
        "5152": "perfe",
        "5153": "perfect</w>",
        "5154": "perform",
        "5155": "perform</w>",
        "5156": "performing</w>",
        "5157": "performs</w>",
        "5158": "peri",
        "5159": "pers",
        "5160": "pers</w>",
        "5161": "person",
        "5162": "person</w>",
        "5163": "personal</w>",
        "5164": "personnel</w>",
        "5165": "persons</w>",
        "5166": "pes</w>",
        "5167": "pet</w>",
        "5168": "pets</w>",
        "5169": "petting</w>",
        "5170": "ph",
        "5171": "phan",
        "5172": "pherd</w>",
        "5173": "pho",
        "5174": "phone</w>",
        "5175": "phones</w>",
        "5176": "photo",
        "5177": "photo</w>",
        "5178": "photograph",
        "5179": "photograph</w>",
        "5180": "photographed</w>",
        "5181": "photographer</w>",
        "5182": "photographs</w>",
        "5183": "photos</w>",
        "5184": "pi",
        "5185": "pia</w>",
        "5186": "piano</w>",
        "5187": "pic",
        "5188": "pic</w>",
        "5189": "pical</w>",
        "5190": "pick",
        "5191": "pick</w>",
        "5192": "picked</w>",
        "5193": "picking</w>",
        "5194": "pickle</w>",
        "5195": "pickles</w>",
        "5196": "picks</w>",
        "5197": "pickup</w>",
        "5198": "picnic</w>",
        "5199": "pict",
        "5200": "picture</w>",
        "5201": "pictured</w>",
        "5202": "pictures</w>",
        "5203": "pie",
        "5204": "pie</w>",
        "5205": "piece</w>",
        "5206": "pieces</w>",
        "5207": "pied</w>",
        "5208": "pier</w>",
        "5209": "pies</w>",
        "5210": "pig",
        "5211": "pig</w>",
        "5212": "pigeon</w>",
        "5213": "pigeons</w>",
        "5214": "pil",
        "5215": "pile</w>",
        "5216": "piled</w>",
        "5217": "piles</w>",
        "5218": "pillar</w>",
        "5219": "pillars</w>",
        "5220": "pillow</w>",
        "5221": "pillows</w>",
        "5222": "pilot</w>",
        "5223": "pin",
        "5224": "pin</w>",
        "5225": "pine",
        "5226": "pine</w>",
        "5227": "pineapple</w>",
        "5228": "ping</w>",
        "5229": "pink</w>",
        "5230": "pipe</w>",
        "5231": "pipes</w>",
        "5232": "pirate</w>",
        "5233": "pired</w>",
        "5234": "pit",
        "5235": "pit</w>",
        "5236": "pita</w>",
        "5237": "pitch</w>",
        "5238": "pitched</w>",
        "5239": "pitcher</w>",
        "5240": "pitchers</w>",
        "5241": "pitching</w>",
        "5242": "pizz",
        "5243": "pizza</w>",
        "5244": "pizzas</w>",
        "5245": "pl",
        "5246": "pla",
        "5247": "place</w>",
        "5248": "placed</w>",
        "5249": "places</w>",
        "5250": "placing</w>",
        "5251": "plaid</w>",
        "5252": "plain</w>",
        "5253": "plains</w>",
        "5254": "plan",
        "5255": "plan</w>",
        "5256": "plane</w>",
        "5257": "planes</w>",
        "5258": "plank</w>",
        "5259": "plant</w>",
        "5260": "plantains</w>",
        "5261": "planter</w>",
        "5262": "plants</w>",
        "5263": "plaque</w>",
        "5264": "plastic</w>",
        "5265": "plat",
        "5266": "plate</w>",
        "5267": "plated</w>",
        "5268": "plates</w>",
        "5269": "platform</w>",
        "5270": "platter</w>",
        "5271": "platters</w>",
        "5272": "play",
        "5273": "play</w>",
        "5274": "played</w>",
        "5275": "player</w>",
        "5276": "players</w>",
        "5277": "playground</w>",
        "5278": "playing</w>",
        "5279": "plays</w>",
        "5280": "plaza</w>",
        "5281": "ple",
        "5282": "ple</w>",
        "5283": "plea",
        "5284": "plenty</w>",
        "5285": "ples</w>",
        "5286": "plo",
        "5287": "plow</w>",
        "5288": "plu",
        "5289": "plugged</w>",
        "5290": "plun",
        "5291": "plush</w>",
        "5292": "pment</w>",
        "5293": "po",
        "5294": "pocket</w>",
        "5295": "pod</w>",
        "5296": "podium</w>",
        "5297": "poin",
        "5298": "point</w>",
        "5299": "pointed</w>",
        "5300": "pointing</w>",
        "5301": "points</w>",
        "5302": "poised</w>",
        "5303": "pokes</w>",
        "5304": "poking</w>",
        "5305": "pol",
        "5306": "polar</w>",
        "5307": "pole</w>",
        "5308": "poles</w>",
        "5309": "police",
        "5310": "police</w>",
        "5311": "policeman</w>",
        "5312": "policemen</w>",
        "5313": "polit",
        "5314": "politan</w>",
        "5315": "political</w>",
        "5316": "polka</w>",
        "5317": "polo</w>",
        "5318": "pon",
        "5319": "pond</w>",
        "5320": "ponies</w>",
        "5321": "pony</w>",
        "5322": "poodle</w>",
        "5323": "pool</w>",
        "5324": "pop</w>",
        "5325": "popu",
        "5326": "populated</w>",
        "5327": "por",
        "5328": "porary</w>",
        "5329": "porcelain</w>",
        "5330": "porch</w>",
        "5331": "pork</w>",
        "5332": "port</w>",
        "5333": "portable</w>",
        "5334": "portion</w>",
        "5335": "portra",
        "5336": "portrait</w>",
        "5337": "pose</w>",
        "5338": "posed</w>",
        "5339": "poses</w>",
        "5340": "posing</w>",
        "5341": "posit",
        "5342": "posite</w>",
        "5343": "position</w>",
        "5344": "positioned</w>",
        "5345": "positions</w>",
        "5346": "possi",
        "5347": "possibly</w>",
        "5348": "post</w>",
        "5349": "posted</w>",
        "5350": "poster</w>",
        "5351": "posters</w>",
        "5352": "posts</w>",
        "5353": "pot",
        "5354": "pot</w>",
        "5355": "pota",
        "5356": "potato</w>",
        "5357": "potatoes</w>",
        "5358": "pots</w>",
        "5359": "potted</w>",
        "5360": "pottery</w>",
        "5361": "pou",
        "5362": "poured</w>",
        "5363": "pouring</w>",
        "5364": "pours</w>",
        "5365": "pow",
        "5366": "powder</w>",
        "5367": "powdered</w>",
        "5368": "power</w>",
        "5369": "powered</w>",
        "5370": "pp",
        "5371": "pped</w>",
        "5372": "pper</w>",
        "5373": "ppers</w>",
        "5374": "pping</w>",
        "5375": "pple</w>",
        "5376": "ppy</w>",
        "5377": "pra",
        "5378": "practic",
        "5379": "practice</w>",
        "5380": "practices</w>",
        "5381": "practicing</w>",
        "5382": "pre",
        "5383": "pregnant</w>",
        "5384": "prep",
        "5385": "prepar",
        "5386": "preparation</w>",
        "5387": "prepare</w>",
        "5388": "prepared</w>",
        "5389": "prepares</w>",
        "5390": "preparing</w>",
        "5391": "pres",
        "5392": "presen",
        "5393": "present",
        "5394": "present</w>",
        "5395": "presentation</w>",
        "5396": "presented</w>",
        "5397": "presenting</w>",
        "5398": "presents</w>",
        "5399": "presi",
        "5400": "press</w>",
        "5401": "pressing</w>",
        "5402": "pretending</w>",
        "5403": "pretty</w>",
        "5404": "pri",
        "5405": "price</w>",
        "5406": "prin",
        "5407": "print</w>",
        "5408": "printed</w>",
        "5409": "printer</w>",
        "5410": "private</w>",
        "5411": "pro",
        "5412": "probably</w>",
        "5413": "proce",
        "5414": "process",
        "5415": "process</w>",
        "5416": "processor</w>",
        "5417": "produ",
        "5418": "produce</w>",
        "5419": "product</w>",
        "5420": "products</w>",
        "5421": "professional</w>",
        "5422": "progre",
        "5423": "progress</w>",
        "5424": "proje",
        "5425": "project</w>",
        "5426": "projector</w>",
        "5427": "prop</w>",
        "5428": "propel",
        "5429": "propeller</w>",
        "5430": "propellers</w>",
        "5431": "propped</w>",
        "5432": "prote",
        "5433": "protective</w>",
        "5434": "protest</w>",
        "5435": "protru",
        "5436": "prou",
        "5437": "provi",
        "5438": "provide</w>",
        "5439": "ps</w>",
        "5440": "pt</w>",
        "5441": "ption</w>",
        "5442": "pu",
        "5443": "public</w>",
        "5444": "puddle</w>",
        "5445": "pug</w>",
        "5446": "pull",
        "5447": "pull</w>",
        "5448": "pulled</w>",
        "5449": "pulling</w>",
        "5450": "pulls</w>",
        "5451": "pump</w>",
        "5452": "pumpkin</w>",
        "5453": "pumpkins</w>",
        "5454": "pun",
        "5455": "puppies</w>",
        "5456": "puppy</w>",
        "5457": "pur",
        "5458": "purple</w>",
        "5459": "purse</w>",
        "5460": "pus</w>",
        "5461": "push</w>",
        "5462": "pushed</w>",
        "5463": "pushes</w>",
        "5464": "pushing</w>",
        "5465": "put</w>",
        "5466": "puts</w>",
        "5467": "putting</w>",
        "5468": "py</w>",
        "5469": "q",
        "5470": "qu",
        "5471": "qua",
        "5472": "quar",
        "5473": "quarters</w>",
        "5474": "que",
        "5475": "que</w>",
        "5476": "queen</w>",
        "5477": "ques</w>",
        "5478": "questri",
        "5479": "quet</w>",
        "5480": "quets</w>",
        "5481": "qui",
        "5482": "quickly</w>",
        "5483": "quid</w>",
        "5484": "quiet</w>",
        "5485": "quil",
        "5486": "quilt</w>",
        "5487": "quite</w>",
        "5488": "quo",
        "5489": "r",
        "5490": "r</w>",
        "5491": "ra",
        "5492": "ra</w>",
        "5493": "rabb",
        "5494": "rabbit</w>",
        "5495": "rable</w>",
        "5496": "rac",
        "5497": "race</w>",
        "5498": "racer</w>",
        "5499": "races</w>",
        "5500": "racing</w>",
        "5501": "rack</w>",
        "5502": "racket</w>",
        "5503": "rackets</w>",
        "5504": "racks</w>",
        "5505": "racquet</w>",
        "5506": "racquets</w>",
        "5507": "radiator</w>",
        "5508": "radio</w>",
        "5509": "radishes</w>",
        "5510": "raff",
        "5511": "raft</w>",
        "5512": "rage</w>",
        "5513": "raging</w>",
        "5514": "rai",
        "5515": "rail",
        "5516": "rail</w>",
        "5517": "railing</w>",
        "5518": "railroad</w>",
        "5519": "rails</w>",
        "5520": "railway</w>",
        "5521": "rain",
        "5522": "rain</w>",
        "5523": "rainbow</w>",
        "5524": "raining</w>",
        "5525": "rainy</w>",
        "5526": "raised</w>",
        "5527": "raises</w>",
        "5528": "raising</w>",
        "5529": "ral</w>",
        "5530": "rally</w>",
        "5531": "ram</w>",
        "5532": "ramp</w>",
        "5533": "ramps</w>",
        "5534": "rams</w>",
        "5535": "ran",
        "5536": "rance</w>",
        "5537": "ranch</w>",
        "5538": "random</w>",
        "5539": "range</w>",
        "5540": "ranges</w>",
        "5541": "rapi",
        "5542": "rapids</w>",
        "5543": "raquet</w>",
        "5544": "ras</w>",
        "5545": "rasp",
        "5546": "raspberries</w>",
        "5547": "rat",
        "5548": "rate</w>",
        "5549": "rather</w>",
        "5550": "raw</w>",
        "5551": "ray</w>",
        "5552": "re",
        "5553": "re</w>",
        "5554": "rea",
        "5555": "reach</w>",
        "5556": "reaches</w>",
        "5557": "reaching</w>",
        "5558": "read</w>",
        "5559": "readies</w>",
        "5560": "reading</w>",
        "5561": "reads</w>",
        "5562": "ready</w>",
        "5563": "real</w>",
        "5564": "really</w>",
        "5565": "rear</w>",
        "5566": "rec",
        "5567": "rece",
        "5568": "recei",
        "5569": "receive</w>",
        "5570": "reception</w>",
        "5571": "reci",
        "5572": "recliner</w>",
        "5573": "reclining</w>",
        "5574": "recor",
        "5575": "record</w>",
        "5576": "recording</w>",
        "5577": "recre",
        "5578": "rectan",
        "5579": "rectangular</w>",
        "5580": "red",
        "5581": "red</w>",
        "5582": "ree</w>",
        "5583": "reen</w>",
        "5584": "refer",
        "5585": "referee</w>",
        "5586": "refle",
        "5587": "reflected</w>",
        "5588": "reflecting</w>",
        "5589": "reflection</w>",
        "5590": "reflective</w>",
        "5591": "reflects</w>",
        "5592": "refri",
        "5593": "refrid",
        "5594": "refridgerator</w>",
        "5595": "refrigerator</w>",
        "5596": "refrigerators</w>",
        "5597": "regi",
        "5598": "regular</w>",
        "5599": "reins</w>",
        "5600": "rel</w>",
        "5601": "rela",
        "5602": "relax</w>",
        "5603": "relaxes</w>",
        "5604": "relaxing</w>",
        "5605": "relea",
        "5606": "reless</w>",
        "5607": "reli",
        "5608": "relish</w>",
        "5609": "rema",
        "5610": "remains</w>",
        "5611": "reme</w>",
        "5612": "remo",
        "5613": "remodel",
        "5614": "remodeled</w>",
        "5615": "remote</w>",
        "5616": "remotes</w>",
        "5617": "removed</w>",
        "5618": "removing</w>",
        "5619": "ren",
        "5620": "reno",
        "5621": "renovated</w>",
        "5622": "rent</w>",
        "5623": "rep",
        "5624": "repair</w>",
        "5625": "replic",
        "5626": "res</w>",
        "5627": "resem",
        "5628": "resi",
        "5629": "residen",
        "5630": "residence</w>",
        "5631": "resident</w>",
        "5632": "residential</w>",
        "5633": "resort</w>",
        "5634": "rest",
        "5635": "rest</w>",
        "5636": "restaur",
        "5637": "restaurant</w>",
        "5638": "resting</w>",
        "5639": "restroom</w>",
        "5640": "rests</w>",
        "5641": "retail</w>",
        "5642": "retrie",
        "5643": "retro</w>",
        "5644": "return</w>",
        "5645": "returning</w>",
        "5646": "returns</w>",
        "5647": "reve",
        "5648": "rhin",
        "5649": "ri",
        "5650": "rial</w>",
        "5651": "rib",
        "5652": "ribb",
        "5653": "ribbon</w>",
        "5654": "rice</w>",
        "5655": "ridden</w>",
        "5656": "ridding</w>",
        "5657": "ride</w>",
        "5658": "rider</w>",
        "5659": "riders</w>",
        "5660": "rides</w>",
        "5661": "riding</w>",
        "5662": "ried</w>",
        "5663": "ries</w>",
        "5664": "rig</w>",
        "5665": "right</w>",
        "5666": "rim</w>",
        "5667": "rimp</w>",
        "5668": "rin",
        "5669": "ring</w>",
        "5670": "rings</w>",
        "5671": "rink",
        "5672": "rink</w>",
        "5673": "ripe</w>",
        "5674": "ripen",
        "5675": "ris</w>",
        "5676": "rise</w>",
        "5677": "rises</w>",
        "5678": "rising</w>",
        "5679": "rispy</w>",
        "5680": "rist",
        "5681": "rist</w>",
        "5682": "river",
        "5683": "river</w>",
        "5684": "riz",
        "5685": "ro",
        "5686": "roa",
        "5687": "road",
        "5688": "road</w>",
        "5689": "roads</w>",
        "5690": "roadside</w>",
        "5691": "roadway</w>",
        "5692": "roam</w>",
        "5693": "roaming</w>",
        "5694": "roast</w>",
        "5695": "roasted</w>",
        "5696": "robe</w>",
        "5697": "robot</w>",
        "5698": "rock</w>",
        "5699": "rocking</w>",
        "5700": "rocks</w>",
        "5701": "rocky</w>",
        "5702": "rod</w>",
        "5703": "rodeo</w>",
        "5704": "rofoam</w>",
        "5705": "roll",
        "5706": "roll</w>",
        "5707": "rolled</w>",
        "5708": "roller</w>",
        "5709": "rolling</w>",
        "5710": "rolls</w>",
        "5711": "roman</w>",
        "5712": "ron",
        "5713": "ron</w>",
        "5714": "rong</w>",
        "5715": "roo",
        "5716": "roof",
        "5717": "roof</w>",
        "5718": "room",
        "5719": "room</w>",
        "5720": "rooms</w>",
        "5721": "rope",
        "5722": "rope</w>",
        "5723": "ropean</w>",
        "5724": "ropes</w>",
        "5725": "rose</w>",
        "5726": "roses</w>",
        "5727": "rotten</w>",
        "5728": "rou",
        "5729": "rough</w>",
        "5730": "rought</w>",
        "5731": "roun",
        "5732": "round</w>",
        "5733": "rounding</w>",
        "5734": "route</w>",
        "5735": "row",
        "5736": "row</w>",
        "5737": "rowing</w>",
        "5738": "rows</w>",
        "5739": "rs</w>",
        "5740": "ru",
        "5741": "rubb",
        "5742": "rubber</w>",
        "5743": "rubbing</w>",
        "5744": "rug</w>",
        "5745": "rugs</w>",
        "5746": "run",
        "5747": "run</w>",
        "5748": "runner</w>",
        "5749": "running</w>",
        "5750": "runs</w>",
        "5751": "runway</w>",
        "5752": "rural</w>",
        "5753": "rus</w>",
        "5754": "rust</w>",
        "5755": "rusted</w>",
        "5756": "rustic</w>",
        "5757": "rusty</w>",
        "5758": "ry",
        "5759": "ry</w>",
        "5760": "rying</w>",
        "5761": "s",
        "5762": "s</w>",
        "5763": "sa",
        "5764": "sa</w>",
        "5765": "sad</w>",
        "5766": "saddle</w>",
        "5767": "safar",
        "5768": "safari</w>",
        "5769": "safe",
        "5770": "safety</w>",
        "5771": "sai",
        "5772": "sail",
        "5773": "sail</w>",
        "5774": "sailboat</w>",
        "5775": "sailboats</w>",
        "5776": "sailing</w>",
        "5777": "sails</w>",
        "5778": "sal",
        "5779": "salad</w>",
        "5780": "sale</w>",
        "5781": "salmon</w>",
        "5782": "salon</w>",
        "5783": "salt</w>",
        "5784": "same</w>",
        "5785": "samp",
        "5786": "san",
        "5787": "san</w>",
        "5788": "sand",
        "5789": "sand</w>",
        "5790": "sandals</w>",
        "5791": "sanding</w>",
        "5792": "sandwhich</w>",
        "5793": "sandwi",
        "5794": "sandwich</w>",
        "5795": "sandwiches</w>",
        "5796": "sandy</w>",
        "5797": "santa</w>",
        "5798": "sat",
        "5799": "sat</w>",
        "5800": "sau",
        "5801": "sauce</w>",
        "5802": "saucer</w>",
        "5803": "sauces</w>",
        "5804": "sausage</w>",
        "5805": "sausages</w>",
        "5806": "savan",
        "5807": "savanna</w>",
        "5808": "savannah</w>",
        "5809": "say</w>",
        "5810": "saying</w>",
        "5811": "says</w>",
        "5812": "sbe",
        "5813": "sbee</w>",
        "5814": "sc",
        "5815": "sca",
        "5816": "scale</w>",
        "5817": "scape</w>",
        "5818": "scar",
        "5819": "scarf</w>",
        "5820": "scattered</w>",
        "5821": "scen",
        "5822": "scene</w>",
        "5823": "scenery</w>",
        "5824": "scenic</w>",
        "5825": "scent</w>",
        "5826": "school</w>",
        "5827": "sciss",
        "5828": "scissor</w>",
        "5829": "scissors</w>",
        "5830": "sco",
        "5831": "scoo",
        "5832": "scooter</w>",
        "5833": "scooters</w>",
        "5834": "scot</w>",
        "5835": "scra",
        "5836": "scrat",
        "5837": "scratching</w>",
        "5838": "scre",
        "5839": "screen</w>",
        "5840": "screens</w>",
        "5841": "scru",
        "5842": "scu",
        "5843": "sculp",
        "5844": "sculpture</w>",
        "5845": "sculptures</w>",
        "5846": "se",
        "5847": "se</w>",
        "5848": "sea",
        "5849": "sea</w>",
        "5850": "seafood</w>",
        "5851": "seagu",
        "5852": "seagull</w>",
        "5853": "seagulls</w>",
        "5854": "seas",
        "5855": "seat</w>",
        "5856": "seated</w>",
        "5857": "seating</w>",
        "5858": "seats</w>",
        "5859": "seball</w>",
        "5860": "secon",
        "5861": "second</w>",
        "5862": "section</w>",
        "5863": "sectional</w>",
        "5864": "sections</w>",
        "5865": "security</w>",
        "5866": "sed</w>",
        "5867": "see",
        "5868": "see</w>",
        "5869": "seed</w>",
        "5870": "seeds</w>",
        "5871": "seeing</w>",
        "5872": "seem</w>",
        "5873": "seems</w>",
        "5874": "seen</w>",
        "5875": "sel",
        "5876": "sel</w>",
        "5877": "sele",
        "5878": "selection</w>",
        "5879": "self</w>",
        "5880": "selfie</w>",
        "5881": "sell</w>",
        "5882": "selling</w>",
        "5883": "sells</w>",
        "5884": "selves</w>",
        "5885": "sely</w>",
        "5886": "sem",
        "5887": "semb",
        "5888": "semi</w>",
        "5889": "sen",
        "5890": "separ",
        "5891": "separate</w>",
        "5892": "separated</w>",
        "5893": "ser",
        "5894": "ser</w>",
        "5895": "series</w>",
        "5896": "serious</w>",
        "5897": "sers</w>",
        "5898": "serv",
        "5899": "serve</w>",
        "5900": "served</w>",
        "5901": "server</w>",
        "5902": "serves</w>",
        "5903": "service</w>",
        "5904": "serving</w>",
        "5905": "ses</w>",
        "5906": "sesame</w>",
        "5907": "set",
        "5908": "set</w>",
        "5909": "sets</w>",
        "5910": "setting</w>",
        "5911": "settings</w>",
        "5912": "setup</w>",
        "5913": "seven</w>",
        "5914": "several</w>",
        "5915": "sewing</w>",
        "5916": "sexy</w>",
        "5917": "sh",
        "5918": "sh</w>",
        "5919": "sha",
        "5920": "shack</w>",
        "5921": "shad",
        "5922": "shade</w>",
        "5923": "shaded</w>",
        "5924": "shades</w>",
        "5925": "shado",
        "5926": "shadow</w>",
        "5927": "shadows</w>",
        "5928": "shady</w>",
        "5929": "shaggy</w>",
        "5930": "shake</w>",
        "5931": "shaking</w>",
        "5932": "shallow</w>",
        "5933": "shap",
        "5934": "shape</w>",
        "5935": "shaped</w>",
        "5936": "shapes</w>",
        "5937": "shar",
        "5938": "share</w>",
        "5939": "sharing</w>",
        "5940": "sharp</w>",
        "5941": "shaved</w>",
        "5942": "shaving</w>",
        "5943": "shboard</w>",
        "5944": "she",
        "5945": "she</w>",
        "5946": "shed</w>",
        "5947": "shee",
        "5948": "sheep</w>",
        "5949": "sheet</w>",
        "5950": "sheets</w>",
        "5951": "shel",
        "5952": "shel</w>",
        "5953": "shelf</w>",
        "5954": "shell</w>",
        "5955": "shells</w>",
        "5956": "shelter</w>",
        "5957": "shelves</w>",
        "5958": "shelving</w>",
        "5959": "shes</w>",
        "5960": "shi",
        "5961": "shi</w>",
        "5962": "shield</w>",
        "5963": "shift</w>",
        "5964": "shine</w>",
        "5965": "shines</w>",
        "5966": "shing</w>",
        "5967": "shings</w>",
        "5968": "shining</w>",
        "5969": "shiny</w>",
        "5970": "shion</w>",
        "5971": "ship</w>",
        "5972": "ships</w>",
        "5973": "shir",
        "5974": "shirt</w>",
        "5975": "shirtless</w>",
        "5976": "shirts</w>",
        "5977": "shly</w>",
        "5978": "shment</w>",
        "5979": "sho",
        "5980": "shoe</w>",
        "5981": "shoes</w>",
        "5982": "shoo",
        "5983": "shop</w>",
        "5984": "shopped</w>",
        "5985": "shopping</w>",
        "5986": "shops</w>",
        "5987": "shor",
        "5988": "shore",
        "5989": "shore</w>",
        "5990": "shoreline</w>",
        "5991": "short</w>",
        "5992": "shorts</w>",
        "5993": "shot</w>",
        "5994": "shots</w>",
        "5995": "shoul",
        "5996": "should</w>",
        "5997": "shoulder</w>",
        "5998": "shoulders</w>",
        "5999": "show",
        "6000": "show</w>",
        "6001": "shower</w>",
        "6002": "showing</w>",
        "6003": "shown</w>",
        "6004": "showroom</w>",
        "6005": "shows</w>",
        "6006": "shre",
        "6007": "shredded</w>",
        "6008": "shrimp</w>",
        "6009": "shru",
        "6010": "shrubb",
        "6011": "shrubbery</w>",
        "6012": "shrubs</w>",
        "6013": "shut",
        "6014": "shuttle</w>",
        "6015": "shy</w>",
        "6016": "si",
        "6017": "si</w>",
        "6018": "sia</w>",
        "6019": "sian</w>",
        "6020": "side",
        "6021": "side</w>",
        "6022": "sidecar</w>",
        "6023": "sided</w>",
        "6024": "sidel",
        "6025": "sides</w>",
        "6026": "sidewalk</w>",
        "6027": "sidewalks</w>",
        "6028": "sideways</w>",
        "6029": "sies</w>",
        "6030": "sig",
        "6031": "sight</w>",
        "6032": "sign",
        "6033": "sign</w>",
        "6034": "signage</w>",
        "6035": "signal</w>",
        "6036": "signals</w>",
        "6037": "signed</w>",
        "6038": "signing</w>",
        "6039": "signs</w>",
        "6040": "sil",
        "6041": "silhouet",
        "6042": "silhouette</w>",
        "6043": "sill</w>",
        "6044": "silly</w>",
        "6045": "silver",
        "6046": "silver</w>",
        "6047": "silverware</w>",
        "6048": "simil",
        "6049": "similar</w>",
        "6050": "simple</w>",
        "6051": "sin",
        "6052": "sing</w>",
        "6053": "singing</w>",
        "6054": "single</w>",
        "6055": "sink</w>",
        "6056": "sinks</w>",
        "6057": "sion</w>",
        "6058": "sit",
        "6059": "sit</w>",
        "6060": "site</w>",
        "6061": "siting</w>",
        "6062": "sits</w>",
        "6063": "sitting</w>",
        "6064": "situ",
        "6065": "situated</w>",
        "6066": "sity</w>",
        "6067": "sive</w>",
        "6068": "six</w>",
        "6069": "size</w>",
        "6070": "sized</w>",
        "6071": "sizes</w>",
        "6072": "sk",
        "6073": "sk</w>",
        "6074": "skat",
        "6075": "skate",
        "6076": "skate</w>",
        "6077": "skateboar",
        "6078": "skateboard</w>",
        "6079": "skateboarder</w>",
        "6080": "skateboarders</w>",
        "6081": "skateboarding</w>",
        "6082": "skateboards</w>",
        "6083": "skatepark</w>",
        "6084": "skater</w>",
        "6085": "skates</w>",
        "6086": "skating</w>",
        "6087": "ske",
        "6088": "sked</w>",
        "6089": "ski",
        "6090": "ski</w>",
        "6091": "skier</w>",
        "6092": "skiers</w>",
        "6093": "skies</w>",
        "6094": "skiier</w>",
        "6095": "skiiers</w>",
        "6096": "skiing</w>",
        "6097": "skiis</w>",
        "6098": "skil",
        "6099": "skillet</w>",
        "6100": "skills</w>",
        "6101": "skin",
        "6102": "skin</w>",
        "6103": "skinny</w>",
        "6104": "skirt</w>",
        "6105": "skis</w>",
        "6106": "sks</w>",
        "6107": "sku",
        "6108": "skull</w>",
        "6109": "sky",
        "6110": "sky</w>",
        "6111": "skyline</w>",
        "6112": "skyscra",
        "6113": "skyscraper</w>",
        "6114": "skyscrapers</w>",
        "6115": "sl",
        "6116": "sla",
        "6117": "slab</w>",
        "6118": "slan",
        "6119": "sland</w>",
        "6120": "slanted</w>",
        "6121": "slaw</w>",
        "6122": "sle",
        "6123": "sled</w>",
        "6124": "slee",
        "6125": "sleek</w>",
        "6126": "sleep</w>",
        "6127": "sleeping</w>",
        "6128": "sleeps</w>",
        "6129": "sleigh</w>",
        "6130": "sley</w>",
        "6131": "sli",
        "6132": "slic",
        "6133": "slice</w>",
        "6134": "sliced</w>",
        "6135": "slices</w>",
        "6136": "slicing</w>",
        "6137": "slide</w>",
        "6138": "slides</w>",
        "6139": "sliding</w>",
        "6140": "slightly</w>",
        "6141": "slippers</w>",
        "6142": "slo",
        "6143": "slope</w>",
        "6144": "slopes</w>",
        "6145": "slow</w>",
        "6146": "slowly</w>",
        "6147": "sly</w>",
        "6148": "sm",
        "6149": "smal",
        "6150": "small</w>",
        "6151": "smaller</w>",
        "6152": "smart",
        "6153": "smart</w>",
        "6154": "smartphone</w>",
        "6155": "smelling</w>",
        "6156": "smil",
        "6157": "smile</w>",
        "6158": "smiles</w>",
        "6159": "smiley</w>",
        "6160": "smiling</w>",
        "6161": "smo",
        "6162": "smoke</w>",
        "6163": "smoking</w>",
        "6164": "smooth",
        "6165": "smoothie</w>",
        "6166": "smothered</w>",
        "6167": "sna",
        "6168": "snack</w>",
        "6169": "snacks</w>",
        "6170": "sne",
        "6171": "snea",
        "6172": "sneakers</w>",
        "6173": "sni",
        "6174": "sniffing</w>",
        "6175": "sniffs</w>",
        "6176": "sno",
        "6177": "snow",
        "6178": "snow</w>",
        "6179": "snowboard</w>",
        "6180": "snowboarder</w>",
        "6181": "snowboarders</w>",
        "6182": "snowboarding</w>",
        "6183": "snowboards</w>",
        "6184": "snowing</w>",
        "6185": "snowsuit</w>",
        "6186": "snowy</w>",
        "6187": "snu",
        "6188": "snugg",
        "6189": "snuggled</w>",
        "6190": "snuggling</w>",
        "6191": "so",
        "6192": "so</w>",
        "6193": "soa",
        "6194": "soaked</w>",
        "6195": "soap</w>",
        "6196": "soaring</w>",
        "6197": "soc",
        "6198": "soccer</w>",
        "6199": "soci",
        "6200": "sociali",
        "6201": "socks</w>",
        "6202": "sod",
        "6203": "soda</w>",
        "6204": "sof",
        "6205": "sofa</w>",
        "6206": "sofas</w>",
        "6207": "soft",
        "6208": "soft</w>",
        "6209": "softball</w>",
        "6210": "sol",
        "6211": "solar</w>",
        "6212": "sold</w>",
        "6213": "soldier</w>",
        "6214": "soldiers</w>",
        "6215": "som",
        "6216": "some",
        "6217": "some</w>",
        "6218": "someone</w>",
        "6219": "someones</w>",
        "6220": "something</w>",
        "6221": "somewhat</w>",
        "6222": "somewhere</w>",
        "6223": "son</w>",
        "6224": "sor",
        "6225": "sor</w>",
        "6226": "sort</w>",
        "6227": "sorts</w>",
        "6228": "sou",
        "6229": "sound</w>",
        "6230": "soup</w>",
        "6231": "sour</w>",
        "6232": "sp",
        "6233": "spa",
        "6234": "space</w>",
        "6235": "spaces</w>",
        "6236": "spacious</w>",
        "6237": "spaghetti</w>",
        "6238": "span",
        "6239": "spapers</w>",
        "6240": "spar",
        "6241": "spark",
        "6242": "sparse</w>",
        "6243": "sparsely</w>",
        "6244": "spat",
        "6245": "spatula</w>",
        "6246": "spe",
        "6247": "spea",
        "6248": "speaker</w>",
        "6249": "speakers</w>",
        "6250": "speaking</w>",
        "6251": "speaks</w>",
        "6252": "speci",
        "6253": "special</w>",
        "6254": "spectators</w>",
        "6255": "spective</w>",
        "6256": "spee",
        "6257": "speech</w>",
        "6258": "speed</w>",
        "6259": "speeding</w>",
        "6260": "speeds</w>",
        "6261": "spen",
        "6262": "spewing</w>",
        "6263": "spi",
        "6264": "spic",
        "6265": "spices</w>",
        "6266": "spil",
        "6267": "spin",
        "6268": "spinach</w>",
        "6269": "spinning</w>",
        "6270": "spir",
        "6271": "spire</w>",
        "6272": "spital</w>",
        "6273": "spla",
        "6274": "splash</w>",
        "6275": "splashing</w>",
        "6276": "split</w>",
        "6277": "spo",
        "6278": "spon",
        "6279": "spoon</w>",
        "6280": "spoons</w>",
        "6281": "spor",
        "6282": "sport</w>",
        "6283": "sporting</w>",
        "6284": "sports</w>",
        "6285": "spot</w>",
        "6286": "spots</w>",
        "6287": "spotted</w>",
        "6288": "spra",
        "6289": "spray</w>",
        "6290": "spraying</w>",
        "6291": "spre",
        "6292": "spread</w>",
        "6293": "spreads</w>",
        "6294": "spring</w>",
        "6295": "sprink",
        "6296": "sprinkled</w>",
        "6297": "sprinkles</w>",
        "6298": "spro",
        "6299": "sprouts</w>",
        "6300": "spy</w>",
        "6301": "squ",
        "6302": "square</w>",
        "6303": "squares</w>",
        "6304": "squash</w>",
        "6305": "squats</w>",
        "6306": "squatting</w>",
        "6307": "squir",
        "6308": "squirrel</w>",
        "6309": "ss",
        "6310": "ss</w>",
        "6311": "ssed</w>",
        "6312": "ssel</w>",
        "6313": "sses</w>",
        "6314": "ssi",
        "6315": "ssic</w>",
        "6316": "ssing</w>",
        "6317": "ssion</w>",
        "6318": "ssive</w>",
        "6319": "ssor",
        "6320": "ssy</w>",
        "6321": "st",
        "6322": "st</w>",
        "6323": "sta",
        "6324": "sta</w>",
        "6325": "stable</w>",
        "6326": "stache</w>",
        "6327": "stack</w>",
        "6328": "stacked</w>",
        "6329": "stacks</w>",
        "6330": "stadium</w>",
        "6331": "stage</w>",
        "6332": "stages</w>",
        "6333": "stain",
        "6334": "stained</w>",
        "6335": "stainless</w>",
        "6336": "stair",
        "6337": "stair</w>",
        "6338": "staircase</w>",
        "6339": "stairs</w>",
        "6340": "stairway</w>",
        "6341": "stal",
        "6342": "stal</w>",
        "6343": "stalk</w>",
        "6344": "stall</w>",
        "6345": "stalls</w>",
        "6346": "stan",
        "6347": "stance</w>",
        "6348": "stand",
        "6349": "stand</w>",
        "6350": "standard</w>",
        "6351": "standing</w>",
        "6352": "stands</w>",
        "6353": "stant</w>",
        "6354": "star",
        "6355": "star</w>",
        "6356": "stard</w>",
        "6357": "stare</w>",
        "6358": "stares</w>",
        "6359": "staring</w>",
        "6360": "stars</w>",
        "6361": "start</w>",
        "6362": "starting</w>",
        "6363": "stat",
        "6364": "state</w>",
        "6365": "stating</w>",
        "6366": "station",
        "6367": "station</w>",
        "6368": "stationary</w>",
        "6369": "statue</w>",
        "6370": "statues</w>",
        "6371": "staur",
        "6372": "stay</w>",
        "6373": "ste",
        "6374": "ste</w>",
        "6375": "stead</w>",
        "6376": "steak</w>",
        "6377": "steam",
        "6378": "steam</w>",
        "6379": "steamed</w>",
        "6380": "sted</w>",
        "6381": "stee",
        "6382": "steel</w>",
        "6383": "steep</w>",
        "6384": "steeple</w>",
        "6385": "steer</w>",
        "6386": "steering</w>",
        "6387": "stem</w>",
        "6388": "stems</w>",
        "6389": "sten",
        "6390": "stening</w>",
        "6391": "step</w>",
        "6392": "stepping</w>",
        "6393": "steps</w>",
        "6394": "ster",
        "6395": "ster</w>",
        "6396": "stered</w>",
        "6397": "stereo</w>",
        "6398": "stern</w>",
        "6399": "sters</w>",
        "6400": "stew</w>",
        "6401": "sti",
        "6402": "stic",
        "6403": "stic</w>",
        "6404": "stically</w>",
        "6405": "stick</w>",
        "6406": "sticker</w>",
        "6407": "stickers</w>",
        "6408": "sticking</w>",
        "6409": "sticks</w>",
        "6410": "still</w>",
        "6411": "sting</w>",
        "6412": "stir",
        "6413": "stir</w>",
        "6414": "stirring</w>",
        "6415": "stle</w>",
        "6416": "stly</w>",
        "6417": "sto",
        "6418": "stock",
        "6419": "stock</w>",
        "6420": "stocked</w>",
        "6421": "stockings</w>",
        "6422": "stom",
        "6423": "stomach</w>",
        "6424": "ston</w>",
        "6425": "stone</w>",
        "6426": "stones</w>",
        "6427": "stool</w>",
        "6428": "stools</w>",
        "6429": "stop",
        "6430": "stop</w>",
        "6431": "stoplight</w>",
        "6432": "stoplights</w>",
        "6433": "stopped</w>",
        "6434": "stopping</w>",
        "6435": "stops</w>",
        "6436": "stor",
        "6437": "storage</w>",
        "6438": "store",
        "6439": "store</w>",
        "6440": "stored</w>",
        "6441": "storefront</w>",
        "6442": "stores</w>",
        "6443": "stori",
        "6444": "storm</w>",
        "6445": "stormy</w>",
        "6446": "story</w>",
        "6447": "stove</w>",
        "6448": "stoves</w>",
        "6449": "str",
        "6450": "stra",
        "6451": "strac",
        "6452": "straight</w>",
        "6453": "strange</w>",
        "6454": "strapped</w>",
        "6455": "straw",
        "6456": "straw</w>",
        "6457": "strawberries</w>",
        "6458": "strawberry</w>",
        "6459": "stre",
        "6460": "stream",
        "6461": "stream</w>",
        "6462": "street",
        "6463": "street</w>",
        "6464": "streetlight</w>",
        "6465": "streets</w>",
        "6466": "stret",
        "6467": "stretch</w>",
        "6468": "stretched</w>",
        "6469": "stretches</w>",
        "6470": "stretching</w>",
        "6471": "strewn</w>",
        "6472": "stri",
        "6473": "strial</w>",
        "6474": "strict</w>",
        "6475": "stries</w>",
        "6476": "strike</w>",
        "6477": "striking</w>",
        "6478": "string</w>",
        "6479": "strings</w>",
        "6480": "strip</w>",
        "6481": "stripe</w>",
        "6482": "striped</w>",
        "6483": "stripes</w>",
        "6484": "stripped</w>",
        "6485": "strips</w>",
        "6486": "stro",
        "6487": "stroller</w>",
        "6488": "strong</w>",
        "6489": "stru",
        "6490": "struc",
        "6491": "structed</w>",
        "6492": "struction</w>",
        "6493": "structure</w>",
        "6494": "structures</w>",
        "6495": "sts</w>",
        "6496": "stu",
        "6497": "stuck</w>",
        "6498": "stud",
        "6499": "student</w>",
        "6500": "students</w>",
        "6501": "studio</w>",
        "6502": "studying</w>",
        "6503": "stuff",
        "6504": "stuff</w>",
        "6505": "stuffed</w>",
        "6506": "stuffing</w>",
        "6507": "stum",
        "6508": "stump</w>",
        "6509": "stun",
        "6510": "stunt</w>",
        "6511": "stunts</w>",
        "6512": "stures</w>",
        "6513": "sty",
        "6514": "sty</w>",
        "6515": "style</w>",
        "6516": "styled</w>",
        "6517": "styles</w>",
        "6518": "styli",
        "6519": "stylish</w>",
        "6520": "stylized</w>",
        "6521": "su",
        "6522": "sual</w>",
        "6523": "sually</w>",
        "6524": "sub",
        "6525": "sub</w>",
        "6526": "submerged</w>",
        "6527": "substance</w>",
        "6528": "suburban</w>",
        "6529": "subway</w>",
        "6530": "such</w>",
        "6531": "sugar</w>",
        "6532": "suit",
        "6533": "suit</w>",
        "6534": "suitcase</w>",
        "6535": "suitcases</w>",
        "6536": "suite</w>",
        "6537": "suits</w>",
        "6538": "sum",
        "6539": "summer</w>",
        "6540": "sun",
        "6541": "sun</w>",
        "6542": "sunflowers</w>",
        "6543": "sunglasses</w>",
        "6544": "sunlight</w>",
        "6545": "sunlit</w>",
        "6546": "sunny</w>",
        "6547": "sunset</w>",
        "6548": "sunshine</w>",
        "6549": "super",
        "6550": "supermarket</w>",
        "6551": "supp",
        "6552": "supplies</w>",
        "6553": "suppor",
        "6554": "support</w>",
        "6555": "sur",
        "6556": "sure</w>",
        "6557": "surf",
        "6558": "surf</w>",
        "6559": "surface</w>",
        "6560": "surfboard</w>",
        "6561": "surfboarding</w>",
        "6562": "surfboards</w>",
        "6563": "surfer</w>",
        "6564": "surfers</w>",
        "6565": "surfing</w>",
        "6566": "surfs</w>",
        "6567": "suring</w>",
        "6568": "surpri",
        "6569": "surprised</w>",
        "6570": "surroun",
        "6571": "surround</w>",
        "6572": "surrounded</w>",
        "6573": "surrounding</w>",
        "6574": "sushi</w>",
        "6575": "suspen",
        "6576": "suspended</w>",
        "6577": "sw",
        "6578": "swa",
        "6579": "swan</w>",
        "6580": "swans</w>",
        "6581": "swe",
        "6582": "sweat",
        "6583": "sweater</w>",
        "6584": "sweatshirt</w>",
        "6585": "swee",
        "6586": "sweet</w>",
        "6587": "swi",
        "6588": "swim",
        "6589": "swim</w>",
        "6590": "swimm",
        "6591": "swimming</w>",
        "6592": "swims</w>",
        "6593": "swin",
        "6594": "swing</w>",
        "6595": "swinging</w>",
        "6596": "swings</w>",
        "6597": "swit",
        "6598": "sword</w>",
        "6599": "swung</w>",
        "6600": "sy",
        "6601": "sy</w>",
        "6602": "symbo",
        "6603": "symbol</w>",
        "6604": "syrup</w>",
        "6605": "system</w>",
        "6606": "t",
        "6607": "t</w>",
        "6608": "ta",
        "6609": "ta</w>",
        "6610": "tab",
        "6611": "tabby</w>",
        "6612": "table",
        "6613": "table</w>",
        "6614": "tablecloth</w>",
        "6615": "tables</w>",
        "6616": "tablet</w>",
        "6617": "tabletop</w>",
        "6618": "tably</w>",
        "6619": "tact</w>",
        "6620": "tag</w>",
        "6621": "tage</w>",
        "6622": "tagged</w>",
        "6623": "tags</w>",
        "6624": "tail</w>",
        "6625": "tails</w>",
        "6626": "tain",
        "6627": "tain</w>",
        "6628": "tained</w>",
        "6629": "tains</w>",
        "6630": "tak",
        "6631": "take</w>",
        "6632": "taken</w>",
        "6633": "takeoff</w>",
        "6634": "takes</w>",
        "6635": "taking</w>",
        "6636": "tal",
        "6637": "tal</w>",
        "6638": "talk</w>",
        "6639": "talking</w>",
        "6640": "talks</w>",
        "6641": "tall</w>",
        "6642": "tallic</w>",
        "6643": "tan",
        "6644": "tan</w>",
        "6645": "tanger",
        "6646": "tangerines</w>",
        "6647": "tank</w>",
        "6648": "tanker</w>",
        "6649": "tant</w>",
        "6650": "tape</w>",
        "6651": "taped</w>",
        "6652": "tar",
        "6653": "tar</w>",
        "6654": "tarmac</w>",
        "6655": "tarp</w>",
        "6656": "tasting</w>",
        "6657": "tasty</w>",
        "6658": "tat",
        "6659": "tation</w>",
        "6660": "tattoo",
        "6661": "tattoo</w>",
        "6662": "tax",
        "6663": "taxi",
        "6664": "taxi</w>",
        "6665": "taxiing</w>",
        "6666": "taxis</w>",
        "6667": "tch</w>",
        "6668": "te",
        "6669": "te</w>",
        "6670": "tea",
        "6671": "tea</w>",
        "6672": "teaching</w>",
        "6673": "teal</w>",
        "6674": "team",
        "6675": "team</w>",
        "6676": "teams</w>",
        "6677": "teapot</w>",
        "6678": "tech",
        "6679": "ted</w>",
        "6680": "teddy</w>",
        "6681": "tee",
        "6682": "tee</w>",
        "6683": "teen",
        "6684": "teen</w>",
        "6685": "teena",
        "6686": "teenage</w>",
        "6687": "teenager</w>",
        "6688": "teenagers</w>",
        "6689": "teens</w>",
        "6690": "teeth</w>",
        "6691": "tel</w>",
        "6692": "tele",
        "6693": "telephone</w>",
        "6694": "televisi",
        "6695": "television</w>",
        "6696": "televisions</w>",
        "6697": "telling</w>",
        "6698": "telo",
        "6699": "tem",
        "6700": "temp",
        "6701": "ten",
        "6702": "ten</w>",
        "6703": "tending</w>",
        "6704": "tennis</w>",
        "6705": "tens</w>",
        "6706": "tensi",
        "6707": "tent</w>",
        "6708": "tents</w>",
        "6709": "ter",
        "6710": "ter</w>",
        "6711": "tered</w>",
        "6712": "tering</w>",
        "6713": "termin",
        "6714": "terminal</w>",
        "6715": "terrain</w>",
        "6716": "terri",
        "6717": "ters</w>",
        "6718": "tery</w>",
        "6719": "tes</w>",
        "6720": "test</w>",
        "6721": "tethered</w>",
        "6722": "tex",
        "6723": "text</w>",
        "6724": "texting</w>",
        "6725": "th",
        "6726": "th</w>",
        "6727": "than</w>",
        "6728": "that</w>",
        "6729": "thats</w>",
        "6730": "the",
        "6731": "the</w>",
        "6732": "theater</w>",
        "6733": "thedr",
        "6734": "thedral</w>",
        "6735": "their</w>",
        "6736": "them",
        "6737": "them</w>",
        "6738": "theme</w>",
        "6739": "themed</w>",
        "6740": "themselves</w>",
        "6741": "then</w>",
        "6742": "ther",
        "6743": "ther</w>",
        "6744": "there</w>",
        "6745": "thered</w>",
        "6746": "thers</w>",
        "6747": "these</w>",
        "6748": "they</w>",
        "6749": "thi",
        "6750": "thick</w>",
        "6751": "thin</w>",
        "6752": "thing</w>",
        "6753": "things</w>",
        "6754": "third</w>",
        "6755": "this</w>",
        "6756": "those</w>",
        "6757": "though</w>",
        "6758": "thouse</w>",
        "6759": "thre",
        "6760": "thread</w>",
        "6761": "three</w>",
        "6762": "threw</w>",
        "6763": "thro",
        "6764": "through",
        "6765": "through</w>",
        "6766": "throw</w>",
        "6767": "throwing</w>",
        "6768": "thrown</w>",
        "6769": "throws</w>",
        "6770": "thru",
        "6771": "thru</w>",
        "6772": "ths</w>",
        "6773": "thumb",
        "6774": "thumb</w>",
        "6775": "thumbs</w>",
        "6776": "thy</w>",
        "6777": "ti",
        "6778": "ti</w>",
        "6779": "tic",
        "6780": "tic</w>",
        "6781": "tice</w>",
        "6782": "ticip",
        "6783": "ticket</w>",
        "6784": "tide</w>",
        "6785": "tidy</w>",
        "6786": "tie</w>",
        "6787": "tied</w>",
        "6788": "tier</w>",
        "6789": "tiered</w>",
        "6790": "ties</w>",
        "6791": "tiger</w>",
        "6792": "tight</w>",
        "6793": "til",
        "6794": "tile</w>",
        "6795": "tiled</w>",
        "6796": "tiles</w>",
        "6797": "tilted</w>",
        "6798": "time</w>",
        "6799": "times</w>",
        "6800": "tin",
        "6801": "tin</w>",
        "6802": "ting</w>",
        "6803": "tings</w>",
        "6804": "tiny</w>",
        "6805": "tion</w>",
        "6806": "tions</w>",
        "6807": "tip</w>",
        "6808": "tips</w>",
        "6809": "tique</w>",
        "6810": "tire</w>",
        "6811": "tired</w>",
        "6812": "tires</w>",
        "6813": "tiss",
        "6814": "tissue</w>",
        "6815": "tit",
        "6816": "titude</w>",
        "6817": "tive</w>",
        "6818": "tle</w>",
        "6819": "tles</w>",
        "6820": "tless</w>",
        "6821": "tly</w>",
        "6822": "tment</w>",
        "6823": "to",
        "6824": "to</w>",
        "6825": "toa",
        "6826": "toast</w>",
        "6827": "toasted</w>",
        "6828": "toaster</w>",
        "6829": "today</w>",
        "6830": "todd",
        "6831": "toddler</w>",
        "6832": "toes</w>",
        "6833": "tofu</w>",
        "6834": "toge",
        "6835": "together</w>",
        "6836": "toil",
        "6837": "toile",
        "6838": "toilet</w>",
        "6839": "toiletries</w>",
        "6840": "toilets</w>",
        "6841": "toilette</w>",
        "6842": "toma",
        "6843": "tomato</w>",
        "6844": "tomatoes</w>",
        "6845": "ton",
        "6846": "ton</w>",
        "6847": "tone</w>",
        "6848": "toned</w>",
        "6849": "tongs</w>",
        "6850": "tongue</w>",
        "6851": "tons</w>",
        "6852": "too",
        "6853": "too</w>",
        "6854": "took</w>",
        "6855": "tool</w>",
        "6856": "tools</w>",
        "6857": "tooth",
        "6858": "tooth</w>",
        "6859": "toothbrush</w>",
        "6860": "toothbrushes</w>",
        "6861": "toothpaste</w>",
        "6862": "top",
        "6863": "top</w>",
        "6864": "topp",
        "6865": "topped</w>",
        "6866": "topping</w>",
        "6867": "toppings</w>",
        "6868": "tops</w>",
        "6869": "tor",
        "6870": "tor</w>",
        "6871": "tori",
        "6872": "torn</w>",
        "6873": "tors</w>",
        "6874": "tortil",
        "6875": "tortilla</w>",
        "6876": "tory</w>",
        "6877": "tos</w>",
        "6878": "tossed</w>",
        "6879": "tossing</w>",
        "6880": "tou",
        "6881": "touch</w>",
        "6882": "touches</w>",
        "6883": "touching</w>",
        "6884": "tour",
        "6885": "tour</w>",
        "6886": "touri",
        "6887": "tourist</w>",
        "6888": "tourists</w>",
        "6889": "tournament</w>",
        "6890": "tow",
        "6891": "tow</w>",
        "6892": "toward</w>",
        "6893": "towards</w>",
        "6894": "towed</w>",
        "6895": "towel</w>",
        "6896": "towels</w>",
        "6897": "tower</w>",
        "6898": "towering</w>",
        "6899": "towers</w>",
        "6900": "towing</w>",
        "6901": "town</w>",
        "6902": "toy</w>",
        "6903": "toys</w>",
        "6904": "tra",
        "6905": "tra</w>",
        "6906": "track</w>",
        "6907": "tracks</w>",
        "6908": "tractor</w>",
        "6909": "traditional</w>",
        "6910": "traff",
        "6911": "traffic</w>",
        "6912": "trail",
        "6913": "trail</w>",
        "6914": "trailer</w>",
        "6915": "trailers</w>",
        "6916": "trailing</w>",
        "6917": "trails</w>",
        "6918": "train</w>",
        "6919": "trainer</w>",
        "6920": "training</w>",
        "6921": "trains</w>",
        "6922": "trak</w>",
        "6923": "tram</w>",
        "6924": "tran",
        "6925": "transit</w>",
        "6926": "transpor",
        "6927": "transport</w>",
        "6928": "transportation</w>",
        "6929": "transporting</w>",
        "6930": "trash",
        "6931": "trash</w>",
        "6932": "trashcan</w>",
        "6933": "travel",
        "6934": "travel</w>",
        "6935": "travelers</w>",
        "6936": "traveling</w>",
        "6937": "travelling</w>",
        "6938": "travels</w>",
        "6939": "tray</w>",
        "6940": "trays</w>",
        "6941": "tre",
        "6942": "treat</w>",
        "6943": "treats</w>",
        "6944": "tree</w>",
        "6945": "trees</w>",
        "6946": "trekking</w>",
        "6947": "trey</w>",
        "6948": "tri",
        "6949": "tric</w>",
        "6950": "trick</w>",
        "6951": "tricks</w>",
        "6952": "trie",
        "6953": "tries</w>",
        "6954": "trim</w>",
        "6955": "trimmed</w>",
        "6956": "trio</w>",
        "6957": "trip</w>",
        "6958": "triple</w>",
        "6959": "tro",
        "6960": "tro</w>",
        "6961": "trolley</w>",
        "6962": "trolly</w>",
        "6963": "tropical</w>",
        "6964": "trough</w>",
        "6965": "tru",
        "6966": "truck</w>",
        "6967": "trucks</w>",
        "6968": "trun",
        "6969": "trunk</w>",
        "6970": "trunks</w>",
        "6971": "try",
        "6972": "try</w>",
        "6973": "trying</w>",
        "6974": "tryside</w>",
        "6975": "ts</w>",
        "6976": "tte</w>",
        "6977": "tted</w>",
        "6978": "tten</w>",
        "6979": "tter</w>",
        "6980": "tting</w>",
        "6981": "tty</w>",
        "6982": "tu",
        "6983": "tub</w>",
        "6984": "tube</w>",
        "6985": "tuce</w>",
        "6986": "tucked</w>",
        "6987": "tug</w>",
        "6988": "tulips</w>",
        "6989": "tum",
        "6990": "tun",
        "6991": "tunnel</w>",
        "6992": "tur",
        "6993": "tural</w>",
        "6994": "ture</w>",
        "6995": "tured</w>",
        "6996": "tures</w>",
        "6997": "turkey</w>",
        "6998": "turn</w>",
        "6999": "turned</w>",
        "7000": "turning</w>",
        "7001": "turns</w>",
        "7002": "turquoise</w>",
        "7003": "turtle</w>",
        "7004": "tusks</w>",
        "7005": "tuxe",
        "7006": "tuxedo</w>",
        "7007": "tv</w>",
        "7008": "tw",
        "7009": "twi",
        "7010": "twilight</w>",
        "7011": "twin</w>",
        "7012": "two</w>",
        "7013": "ty",
        "7014": "ty</w>",
        "7015": "tyard</w>",
        "7016": "tying</w>",
        "7017": "type</w>",
        "7018": "types</w>",
        "7019": "typical</w>",
        "7020": "typing</w>",
        "7021": "u",
        "7022": "u</w>",
        "7023": "uc",
        "7024": "ucch",
        "7025": "ude</w>",
        "7026": "ue</w>",
        "7027": "ues</w>",
        "7028": "ugh",
        "7029": "ugh</w>",
        "7030": "ugly</w>",
        "7031": "ul",
        "7032": "ula</w>",
        "7033": "ular</w>",
        "7034": "ult</w>",
        "7035": "ultimate</w>",
        "7036": "um",
        "7037": "um</w>",
        "7038": "umb",
        "7039": "umb</w>",
        "7040": "umbre",
        "7041": "umbrella</w>",
        "7042": "umbrellas</w>",
        "7043": "ument</w>",
        "7044": "umin",
        "7045": "ummy</w>",
        "7046": "ump",
        "7047": "ump</w>",
        "7048": "umpire</w>",
        "7049": "un",
        "7050": "unable</w>",
        "7051": "uncooked</w>",
        "7052": "und</w>",
        "7053": "under",
        "7054": "under</w>",
        "7055": "underground</w>",
        "7056": "underneath</w>",
        "7057": "underwear</w>",
        "7058": "unfinished</w>",
        "7059": "ung</w>",
        "7060": "uni",
        "7061": "uniform",
        "7062": "uniform</w>",
        "7063": "uniformed</w>",
        "7064": "uniforms</w>",
        "7065": "unique</w>",
        "7066": "unit</w>",
        "7067": "unloading</w>",
        "7068": "unmade</w>",
        "7069": "unripe</w>",
        "7070": "unu",
        "7071": "unused</w>",
        "7072": "unusual</w>",
        "7073": "up",
        "7074": "up</w>",
        "7075": "upon</w>",
        "7076": "upper</w>",
        "7077": "upright</w>",
        "7078": "ups</w>",
        "7079": "upside</w>",
        "7080": "upward</w>",
        "7081": "upwards</w>",
        "7082": "ur",
        "7083": "ur</w>",
        "7084": "ural</w>",
        "7085": "urban</w>",
        "7086": "urch</w>",
        "7087": "ure</w>",
        "7088": "ured</w>",
        "7089": "ures</w>",
        "7090": "urin",
        "7091": "urinal</w>",
        "7092": "urinals</w>",
        "7093": "urine</w>",
        "7094": "urines</w>",
        "7095": "uring</w>",
        "7096": "urn</w>",
        "7097": "urry</w>",
        "7098": "urt</w>",
        "7099": "ury</w>",
        "7100": "us</w>",
        "7101": "use</w>",
        "7102": "used</w>",
        "7103": "uses</w>",
        "7104": "usi",
        "7105": "using</w>",
        "7106": "ut",
        "7107": "ut</w>",
        "7108": "ute</w>",
        "7109": "utensil</w>",
        "7110": "utensils</w>",
        "7111": "utes</w>",
        "7112": "util",
        "7113": "utility</w>",
        "7114": "uts</w>",
        "7115": "v",
        "7116": "v</w>",
        "7117": "va",
        "7118": "vacant</w>",
        "7119": "val",
        "7120": "val</w>",
        "7121": "valley</w>",
        "7122": "van",
        "7123": "van</w>",
        "7124": "vand",
        "7125": "vandalized</w>",
        "7126": "vane</w>",
        "7127": "vanilla</w>",
        "7128": "vanity</w>",
        "7129": "vans</w>",
        "7130": "var",
        "7131": "vari",
        "7132": "varie",
        "7133": "varieties</w>",
        "7134": "variety</w>",
        "7135": "various</w>",
        "7136": "vase</w>",
        "7137": "vases</w>",
        "7138": "vast</w>",
        "7139": "vate</w>",
        "7140": "vated</w>",
        "7141": "vation</w>",
        "7142": "vd</w>",
        "7143": "ve",
        "7144": "ve</w>",
        "7145": "ved</w>",
        "7146": "vege",
        "7147": "veget",
        "7148": "vegetable</w>",
        "7149": "vegetables</w>",
        "7150": "vegetarian</w>",
        "7151": "vegetation</w>",
        "7152": "veggi",
        "7153": "veggie</w>",
        "7154": "veggies</w>",
        "7155": "vehic",
        "7156": "vehicle</w>",
        "7157": "vehicles</w>",
        "7158": "vel",
        "7159": "vel</w>",
        "7160": "velo",
        "7161": "vely</w>",
        "7162": "vement</w>",
        "7163": "ven",
        "7164": "ven</w>",
        "7165": "vender</w>",
        "7166": "vending</w>",
        "7167": "vendor</w>",
        "7168": "vendors</w>",
        "7169": "vens</w>",
        "7170": "venue</w>",
        "7171": "ver",
        "7172": "ver</w>",
        "7173": "veral</w>",
        "7174": "vering</w>",
        "7175": "vers</w>",
        "7176": "verti",
        "7177": "vertic",
        "7178": "vertical</w>",
        "7179": "very</w>",
        "7180": "ves</w>",
        "7181": "vest</w>",
        "7182": "vestock</w>",
        "7183": "vests</w>",
        "7184": "vet</w>",
        "7185": "vi",
        "7186": "vid",
        "7187": "video",
        "7188": "video</w>",
        "7189": "vie",
        "7190": "view</w>",
        "7191": "viewed</w>",
        "7192": "viewer</w>",
        "7193": "viewing</w>",
        "7194": "views</w>",
        "7195": "vil",
        "7196": "vil</w>",
        "7197": "village</w>",
        "7198": "vily</w>",
        "7199": "vin",
        "7200": "vine</w>",
        "7201": "vines</w>",
        "7202": "ving</w>",
        "7203": "vintage</w>",
        "7204": "visi",
        "7205": "visible</w>",
        "7206": "vision</w>",
        "7207": "visitors</w>",
        "7208": "vities</w>",
        "7209": "vity</w>",
        "7210": "vo",
        "7211": "vol",
        "7212": "volle",
        "7213": "volley</w>",
        "7214": "volleyball</w>",
        "7215": "vor",
        "7216": "vy</w>",
        "7217": "w",
        "7218": "w</w>",
        "7219": "wa",
        "7220": "wading</w>",
        "7221": "waff",
        "7222": "waffle</w>",
        "7223": "waffles</w>",
        "7224": "wagon</w>",
        "7225": "wai",
        "7226": "waist</w>",
        "7227": "wait",
        "7228": "wait</w>",
        "7229": "waiting</w>",
[...]
